/**
  ******************************************************************************
  * @file    network_data_params.c
  * @author  AST Embedded Analytics Research Platform
  * @date    Fri May 19 21:38:22 2023
  * @brief   AI Tool Automatic Code Generator for Embedded NN computing
  ******************************************************************************
  * Copyright (c) 2023 STMicroelectronics.
  * All rights reserved.
  *
  * This software is licensed under terms that can be found in the LICENSE file
  * in the root directory of this software component.
  * If no LICENSE file comes with this software, it is provided AS-IS.
  ******************************************************************************
  */

#include "network_data_params.h"


/**  Activations Section  ****************************************************/
ai_handle g_network_activations_table[1 + 2] = {
  AI_HANDLE_PTR(AI_MAGIC_MARKER),
  AI_HANDLE_PTR(NULL),
  AI_HANDLE_PTR(AI_MAGIC_MARKER),
};




/**  Weights Section  ********************************************************/
AI_ALIGNED(32)
const ai_u64 s_network_weights_array_u64[5313] = {
  0x3e317b7fbe242275U, 0xbdb65b81be2178a8U, 0xbbd85aa6bb8f66eaU, 0xbe769afcbd20b337U,
  0xbe5161fbbe357754U, 0xbb7d524bbd031709U, 0x3ce84cfabe53f8feU, 0xbda7bddc3e4b8bafU,
  0x3e44cd1c3df61047U, 0xbe545b9cbe47674aU, 0x3d37fdea3d02f05cU, 0xbd7112a0bd13d87dU,
  0xbe12ee45bd4290ebU, 0xbddafd45bdb97eacU, 0x3e30a340be4d5e94U, 0xbe783ea4bd6f8e46U,
  0xbd11800c3e316148U, 0x3d15e1aabddfc0acU, 0xbe3a8ce53e261916U, 0x3c78ef54be492013U,
  0xbc64f6413c4bdb41U, 0x3e42db943e669e2eU, 0xbde3ca7a3d33168bU, 0x3e37d0b2bdef92b4U,
  0x3e27d023be0c3689U, 0x3e1359adbe479943U, 0xbe0dc8c8be4bda30U, 0xbe2e8cedbda2d6e2U,
  0xbe43f5bdbe02d095U, 0x3e3ed72b3e5ce28eU, 0xbdf6be7cbca33a4cU, 0xbde0d2723d43c8c0U,
  0x3d2613a73e3ca4a8U, 0xbf08caa3bc51e736U, 0xbf3693cc3f593e54U, 0x3dbfe4b4bf559836U,
  0x3eb27ff7bd03e341U, 0x3f41d72cbf46f226U, 0x3f3bfa233d69854aU, 0xbf357a6a3d87e5c0U,
  0xbc122f9f3e95103fU, 0x3e1d060c3ef7a329U, 0x3f4e28123f37ba7aU, 0x3f5a6e46bf40dba2U,
  0x3ee7ab523f493de0U, 0x3f35c1293f357e19U, 0xbef7478b3e0d5df3U, 0x3e41b2693f571633U,
  0x3f5492813d387718U, 0x3f603e353f215854U, 0x3e24b7553daa0214U, 0xbf550a1d3d9c3209U,
  0x3f5494a83f4b5ffeU, 0xbe1575d3be8e87dcU, 0x3f30ac21bf4b8e13U, 0xbe3137923f313e35U,
  0x3e12c88e3f23f0f0U, 0xbee902be3ea497e0U, 0x3f3af6113ead0e5bU, 0x3edf3f853f5a0040U,
  0x3db6677e3f328397U, 0xbec72754be9558f8U, 0xbe69f66b3f4bffb7U, 0x3f499dd93f477bb8U,
  0xbf10527b3f174107U, 0x3f2cbd5d3f1ee2c0U, 0x3ec688bfbec20abdU, 0x3f0d75f83f247ffeU,
  0x3ee2a0d03f235876U, 0xbedf89993f2eece8U, 0xbede5c3c3f0abce1U, 0x3f1a4580bf11d663U,
  0xbf092a99bf180e7bU, 0x3f124f213ed17715U, 0xbf071c48bf0f8f16U, 0xbdf6ac9f3ebcd424U,
  0x3ed9de9dbe8ea139U, 0x3eba4ac33d16f709U, 0xbeee840e3f03f388U, 0x3ee404d3bdea3721U,
  0xbbb8e379bf262227U, 0xbf2763753e4adfd4U, 0x3f09d910bf1d5b4fU, 0x3ec71aba3f0b16c3U,
  0xbee7f1d5be8f6a72U, 0xbf03b95dbed4c8b7U, 0x3e9996713e554ae3U, 0xbf0d22353e6981a8U,
  0xbf2443ad3e7a1cfeU, 0xbeec0df93ebf405aU, 0x3e91a82b3edcd6a7U, 0x3f0f83ffbdaffde1U,
  0x3eff3cc7bb597d7eU, 0xbebdc2dbbef470c3U, 0x3f30b2bdbe7ce9c6U, 0x3e420ddfbf332060U,
  0x4118dbe44111517cU, 0xbe2b51e6bde0af26U, 0xbe61f13bbe325d08U, 0xbdbc3f9cbe34a4b4U,
  0xbe2c2d3fbb49af80U, 0x3d8bf633bd89c60cU, 0xbf03d2743f1253bbU, 0xbdf24f66bdcf8f74U,
  0xbf2d331abdea325cU, 0x3db9e0093ef3cd65U, 0xbda1fd493f12e4fbU, 0xbd3aaf143e4a2e1aU,
  0xbe384195bbbeed20U, 0x3e8fb9373dda274eU, 0x3e76086dbf24aa93U, 0x3e6c59c6be95e87fU,
  0x3f26d4b7be6038ccU, 0x3d0f9e543d1fbfc5U, 0xbef1101b3e3219e8U, 0xbefad8fe3e77c6c5U,
  0xbe6144313e57b6e6U, 0x3d21b2d0bded9a3fU, 0xbf2ab8753e1d1a16U, 0xbe0c41f93db21e09U,
  0xbde93140bd0f69e4U, 0x3e434c36bcbfce2bU, 0x3ec71c4b3ed9c626U, 0x3e2f89cfbf27879bU,
  0xbf55dd7d3e62691cU, 0xbf6c5c443dafe294U, 0x3f079ac83cdb2a97U, 0x3e2271a03ea8d8a0U,
  0xbe43f4273e64f4afU, 0x3cea6d80be33ebb2U, 0x3ec27dd23cc38247U, 0x3ee4b645bf1b9ca6U,
  0x3e06b06c3e65dd08U, 0x3d64bf323dafeab2U, 0x3e23a2e8bfaf330bU, 0x3e6359d73ec1413dU,
  0xbe77b0d93aed12aaU, 0x3ef2f0313f2bc1faU, 0xbe8ecbdb3eaca529U, 0xbf118fea3ed0f1beU,
  0x3f1677303e4747faU, 0xbda1d6e0bd67c18aU, 0xbe1a3e163cee6d80U, 0xbd94ee9abe5920e6U,
  0xbe6b18e0bdf03ad8U, 0x0U, 0xbe24787900000000U, 0xbe5145ab00000000U,
  0xbe72d62cU, 0xbe12f89e3d8eb0f5U, 0x3bfa915cbdc16155U, 0xbbc4a7bcbd9f1194U,
  0x3decb09dU, 0xbe09f14ebe9cb658U, 0x3c1b32283d92bd1cU, 0xbe9f0ae2U,
  0xbe9e937cbc2e9d2dU, 0xbeaf07753e84374bU, 0xbe896ae2bd960814U, 0xbdcc099fbe5027d9U,
  0x0U, 0xbda71704bc77e780U, 0xbe79b2b13e09876eU, 0x3f4e99de3b249940U,
  0xbdd252acbfeaaffeU, 0xbf3d52a7be87ddabU, 0x3e0b993cbdbd4efaU, 0x3dacf1b7bf81d9f3U,
  0xbd9165d33e5a809bU, 0x3e3c3f07be541abfU, 0x3f432f0a3f5fe9acU, 0xbe053ad0bfd578b4U,
  0xbf59aeeebe06b30dU, 0xbd5672a3bf5372a7U, 0xbf2b2220be1e92a3U, 0xc0793c37bef6517dU,
  0x3dc11fe83da63824U, 0xbcee30c8bd075338U, 0x3e9e45a0bdcd5156U, 0xbeb44b673db3a250U,
  0xbd9fe1b73c88f535U, 0x3e71ec26bcd3e8f5U, 0x3ddc7e39be916e8dU, 0xbd7bcb363df14972U,
  0xbd1b4f283e768297U, 0xbf08e3ea3e211f83U, 0x3f3cd023be254b3aU, 0xbd84ffaebcd0e854U,
  0x3ccf2aae3e47d5a3U, 0x3e9be676bf944023U, 0xbe49d55c3ebdcc56U, 0xbea1306bbee9b4eeU,
  0xbd9507a1bd9094e6U, 0xbcf98224bdc95d34U, 0xbddb022bbcd59300U, 0xbeafaab4bdca9ba2U,
  0x3d6cfeb43ea1c382U, 0x3dcb1bc0bee46cbbU, 0xbf1df2b2bc9bb4aeU, 0xbe0b8ec23e74a953U,
  0x3dde05c8bf29b4b7U, 0x3e49eb0d3fa250f0U, 0x3ece279d3f11c515U, 0x3d914bae3ec16be2U,
  0x3e452546bf1c9316U, 0x3e267d6f3ecd9fe0U, 0x3dd26e56be9c3bbbU, 0x3e85b1103da7d488U,
  0xbc90eea0bdb9048eU, 0x3da37b00bda31940U, 0xbe02ceafbe06fc5aU, 0x3f7c78c83df4bd3cU,
  0xbdec6a46be7eb826U, 0x3dd016a03bff5c63U, 0xbcd282c3be669e78U, 0xbd1ce982bd9395f8U,
  0x3da0ef283ebb962aU, 0x3d9f6421be7b039aU, 0xbcccbe483e10fc05U, 0xbcda44e4bddc34acU,
  0xbd99c687be2abeffU, 0xbee514a23f0232e5U, 0xbeb77d143e43eb26U, 0xbcfb83aa3ca4f6c5U,
  0xbdd414863dd0819eU, 0xbdfe366f3cec7d78U, 0xbe145d0bbdd00eacU, 0x3ee249f13e0bca66U,
  0xbce9b2543d7365ddU, 0x3d99d815be19e06eU, 0x3dbe40c0380449a0U, 0x3d3d4a183da92c23U,
  0xbb01a7c0bf00b85bU, 0xbda0707fbd5a10e9U, 0xbed5236fbe389500U, 0xbe0a401dbe259259U,
  0xbded75f0bd87728aU, 0xbe137512bf199882U, 0xbe54d298be2a48afU, 0xbdf2621f3e025e0dU,
  0x3d000994bd85aa1bU, 0x3de54e003d9fd580U, 0x3ea81eb3bdfa0499U, 0x3e0216d2bd149486U,
  0xbc9be9603e414662U, 0x3d56fb7a3e87f4feU, 0x3daf4d9f3e20dfc6U, 0xbbbce2e03e14d264U,
  0xbddd36323c93144bU, 0x3d2974803d2180c9U, 0x3d6bba24bd62b4d9U, 0x3ce23598bdf0818dU,
  0x3e7a995b3e4a4077U, 0x3ec02c883e95042bU, 0x3edcd17dbd95b56dU, 0x3e1a6b9b3d80974bU,
  0x3cb70d003e0d6c44U, 0xbc9eb1b03d290374U, 0xbe0449f5bd99ac57U, 0xbd46e3ea3d7ab3ecU,
  0x3d8efb64be231b2dU, 0x3db3af0fbe245f66U, 0x3cbffb7cbccede32U, 0xbb9a1360bdae0167U,
  0xbde51a823da45f92U, 0x3d2b214f3ce7a5afU, 0x3dada50fbd1c524fU, 0xbb893160be3c918eU,
  0x3dbe27eebcf0d16cU, 0xbe3f08f4bc2f43f0U, 0xbe0b09a8bbb36f07U, 0xbdd680d6be1c9cf2U,
  0xbcbddd643dce45a6U, 0xbcc3d13c3e0a105aU, 0x3caad03e3e03b028U, 0xbd4cedfd3de728f4U,
  0x3cbb10603d26570eU, 0xbe07bbf7be2bac2dU, 0xbdb1729bbd36eb0fU, 0x3ca000f83d8adf53U,
  0x3db32064bd50bc94U, 0x3d672c01bde2a8daU, 0xbd796bd6be1d4222U, 0x3de7877c3ca21735U,
  0x3d5e9e923da7c4aaU, 0xbe3074f8bdbf4df2U, 0xbd1f4507ba9e4aa2U, 0x3da9f275be45d2ecU,
  0xbda58eecbdc1ba1eU, 0xbc4bb220bd632d40U, 0xbdbfdc073d017744U, 0x3d222ec93dfdb7b0U,
  0xbd2868963dabeecaU, 0x3d77082abe415b2cU, 0xbe250f75be0a558aU, 0x3dfc0f84bde4bc42U,
  0x3c8e0260bd95b2cfU, 0x3d4ba908bdd7889dU, 0xbe3a44ac3cc5ace5U, 0x3d0a00c8bd9c0b32U,
  0xbdffce0abd8bb97bU, 0xbbf65ca8bdbfbfd5U, 0xbd99eb7cbd772116U, 0xbe3429dfbd8df56bU,
  0xbd609fde3d708548U, 0x3d681e30be0b70baU, 0xbe254baf3dec34d4U, 0x3d8061fcbd0de23aU,
  0x3dd26c5a3e00f244U, 0xbdb75da33d72d3dcU, 0xbd575ec1bdc6fba2U, 0x3dfb77e03dbc4598U,
  0xbd0a55383deb0200U, 0xbe17b2ea3c524713U, 0xbc3732c0bd70330eU, 0x3dc100c4be1efeb5U,
  0xbe0c85fa3d0ccfebU, 0x3da2c385bdecdf71U, 0x3d8b696fbe0c0777U, 0xbcb44afe3d9abbf4U,
  0xbdf0c4993e06bc6eU, 0x3d92e59e3db03e8eU, 0x3d2af631bce72bc4U, 0x3d6dfa643df6b7a4U,
  0x3d4d3c5cbe0baacfU, 0x3d2af3403de0c8f3U, 0xbbbc721d3d502225U, 0x3c7d4880bd69e8dcU,
  0xbdb67723bd800d5fU, 0xbddc97a83d61aee6U, 0xbda25c783c263f10U, 0xbdd8a94cbe177f2aU,
  0x3dd4221b3dad15a2U, 0x3d99041c3cc5f9b0U, 0xbda279f3bd06b014U, 0x3dc3f3d2be1ee2a4U,
  0x3ce50520bdfe82f4U, 0xbd0bc9383db9dfdaU, 0xbe1ae7f03dd72b00U, 0xbe0102da3d6075f0U,
  0xbdaab27cbe11e380U, 0xbbc2f6d1bd86243aU, 0xbd56fdddbda81288U, 0xbd4a554ebdc59ad2U,
  0x3dc0a01a3c73deedU, 0xbdc0332abe05b8efU, 0xbe1221503d098ff7U, 0xbcf9d940bd07dea3U,
  0xbdac2e1b3c20bdbcU, 0x3d1bf18cbcfabf78U, 0x3dab11633d22d4b4U, 0x3da5237a3d2eb934U,
  0xbddae5793d8c6588U, 0xbe107369bdf74b77U, 0xbd63e307bcacc410U, 0xbc78e5433d558694U,
  0xbdf139753c0af761U, 0xbdbf2e2ebd423218U, 0xbe6f202dbec111bbU, 0xbdf10ed33d2033eeU,
  0x3dadc27e3ddc18bbU, 0xbdce45d8bdfd7c29U, 0x3dd27faf3ce534f1U, 0xbe030206bcc18f68U,
  0xbd979be5bdc537deU, 0xbe8791713e887fdfU, 0xbc8b2401bd4d25d3U, 0xbd004f79be074c73U,
  0xbcb0e274bdda0a55U, 0xbdf152683d8f989cU, 0xbe05cd79bddafa3dU, 0x3d8e2e87bc899640U,
  0xbcedc08c3d20b577U, 0x3e91fcddbe46d88dU, 0xbd771ea3bd28420aU, 0xbd6289c03dd4aa43U,
  0xbd22a468be8b4ff7U, 0xbdc2f07cbe5376d6U, 0x3df380653c842460U, 0x3db46d2c3d45db60U,
  0xbae5b93ebca23d8bU, 0x3d33fa74bf0f293eU, 0xbd2200c1beeb176aU, 0x3da4d74a3dfa0c93U,
  0x3d12b70c3d3e4e54U, 0x3c3cb3303dec0a10U, 0x3d8cba9fbbd11ac0U, 0xbc35a807bdaebfdcU,
  0x3d931c363e1851b2U, 0xbcf45c0c3b9b227aU, 0xbe89b932bd118a1aU, 0xbbb5e4c03c92cb3eU,
  0x3df445203db4eb4cU, 0xbe1fb2703ddf441eU, 0xbd596775bdaddfdcU, 0x3dfe5b443e3ba237U,
  0x3e9ef764bdf598b4U, 0x3de280e0be6f05f9U, 0xbcefc8933e1318b2U, 0xbf12f0abbe2ee70dU,
  0x3e058c263e010578U, 0x3d0db7f0bdca0dc0U, 0xbd58eb3cbd413bfcU, 0xbcbaf59c3ddb4b7cU,
  0x3d184a84bbc3a4eeU, 0x3de1a3373c8fc706U, 0x3dc7b9153c3b2e77U, 0x3dddd2e43d1d4151U,
  0x3d2817f83d5b9123U, 0xbdd6e138be20a00aU, 0xbdb61d573dc30753U, 0xbda0489cbd9cb11eU,
  0xbe10f35bbdbb9d80U, 0xbdef8f643dee677fU, 0xbd702d72bd1451a3U, 0x3c11968f3d3e75a8U,
  0xbdef8af8bd0b3558U, 0xbdcd20a0bc739470U, 0x3d6f4a0b3dea3158U, 0xbd237dc13d83997cU,
  0x3dc897eabd95d723U, 0xbd50e554bd85e947U, 0xbd63f2a6bda5baf2U, 0x3c9240b8bcb68fb4U,
  0xbded7694bd0e982aU, 0xbdeb073bbe072d9bU, 0x3d8417f9bd9358c1U, 0xbc7f0610bdb4fe6bU,
  0x3d464ee43dace839U, 0xbd403fe0be005c59U, 0xbdc57a743db2035cU, 0xbddd5bf4bd18cb3bU,
  0xbb64f2403e044384U, 0x3d312828bd881d33U, 0xbd361556bbaa1c20U, 0xbdf339bd3d2e85d0U,
  0xbb7d28c03dd7c9c7U, 0xbd3b3510bcd843ddU, 0x3d94c7a7bd8cd13bU, 0x3de15ffcbccb38a7U,
  0x3db5d3ac3de70fe7U, 0xbd221b083d9a4ab6U, 0xbc50c55b3dbefa46U, 0xbd438ffebd9c3289U,
  0x3dbc7990bdd72c93U, 0xbddb29833b432600U, 0xbe1560f8bd90e4e3U, 0xbdc8e88cbd7acb01U,
  0x3b9e8560bd9da628U, 0x3d9174a8bdc6f347U, 0xbe2d90553c01bc80U, 0x3f836ecc3ccdd958U,
  0xbbb0a3c03e0aa31cU, 0xbd054315be6f0aefU, 0x3d1b4ab63eaa0be1U, 0x3d03eda8bcdb164fU,
  0x3bea87803dceb327U, 0xbeb7d4d6bd8e186eU, 0x3f83fc8fbe594caeU, 0x3c15f0003d68240eU,
  0xbe5cbc7abe82e0faU, 0xbdf0a4dcbf70277fU, 0xbdab35c13e10a8d7U, 0x3c5525ab3ea08c46U,
  0x3d87f86e3d621b14U, 0xbd3f02a43bc8cbc0U, 0x3db7bd13bc457e40U, 0xbe1e06ac3c10c320U,
  0x3da4e9343da97ae0U, 0xbeb936ed3cfefbe8U, 0xbda038d63e945cceU, 0x3d20e124bdf1c785U,
  0x3d20b0c8beec9bdaU, 0x3dea8ea5be8d6c75U, 0xbfa337073e1646f0U, 0xbd1787f2bcbb8756U,
  0x3e675c193dd818b3U, 0x3ec72c57be9f3125U, 0x3e9d0012bf0ce05eU, 0xbcba8f63be876600U,
  0x3da505f6bd68cb48U, 0xbcc0466c3dca53a0U, 0x3d01597ebe0b1836U, 0xbf66b2cd3d599958U,
  0x3cf2bca8be04a829U, 0xbcec338e3e8ccd41U, 0x3e32a846be1f5fe3U, 0xbd01527ebe09ab5bU,
  0xbc8529003edff406U, 0xbf99328dbd99ede4U, 0xbec2ab553e570ba7U, 0xbd17c698bcc76f08U,
  0xbe03c6973e15e257U, 0xbefa3b98bea00109U, 0xbe20c5f03dee710dU, 0xbd44b6fbbfeb586cU,
  0xbd5afc463e0aed44U, 0x3c850aa03d12f6d8U, 0x3d8f4f59bdb5e712U, 0x3ec46381bd2fd84aU,
  0xbd63f57cbe7d7bd7U, 0xbb3d3d823d44d28cU, 0x3e3364dcbed5aeefU, 0xbc6ab4663ddbe615U,
  0x3be487c03e0cf59dU, 0x3e0919d3bdbd3ee9U, 0x3fa46a6f3eaef64dU, 0x3dd8a538be2607c3U,
  0xbdcce8b33dc34c26U, 0xbf47fbbd3f26a77fU, 0x3e31f0f03e434428U, 0x3e82fbbf3ba6534cU,
  0x3df6c5d0be080f17U, 0x3dc31fd23bf0d0a0U, 0xbe53756cbded61beU, 0x3e914f86be11dfb8U,
  0xbd5d2a5c3d46b199U, 0xbf0421aebe72adcdU, 0xbe27dafa3e34180bU, 0xbda43046befde592U,
  0x3d84e2f4bf3fe503U, 0xbe1846b63eee4021U, 0x3f357fa2be926a43U, 0xbc002630bdb0b4f0U,
  0xbdcc1531bd0c9624U, 0x3cf97c86bf290b6cU, 0x3ceefb50bf67eb24U, 0x3c0126d4be774012U,
  0xbdcd8fd63d5c9960U, 0x3db06ea23dd8b19cU, 0x3df6a9f5bdd431f7U, 0x3ddc95eb3cf885b0U,
  0xbd6118b83e2bb7dcU, 0x3cf2f1b9bddf4222U, 0xbe9b78103e45a2e1U, 0x3d4fe7b0bd8ce20fU,
  0x3cca62783d565ef8U, 0xbe871b943e46a2dcU, 0x3c561047be25cb10U, 0xbde92f543e1f01c6U,
  0x3ee6778cbe965e5cU, 0x3de12af7bf995d9bU, 0xbea5661f3d544482U, 0xbf192a80be213a29U,
  0xbd10fe92bd57e88eU, 0xbd8c5fc23c05d690U, 0xbe82dc59bd806daeU, 0x3d9191ca3d0861d8U,
  0xbd721e323d928a62U, 0x3e9a6656bc108f52U, 0xbe01847abdec7117U, 0xbdc8bde43e99019bU,
  0x3d865d763e8fbb0aU, 0x3e2a6017bf001fe9U, 0xbec0711f3ec7b967U, 0x3e042408bf312808U,
  0xbebe1085be249f22U, 0xbebfe79a3ec61988U, 0xbed07704be898aa1U, 0xbdc8b46d3db66eccU,
  0xbe0359ffbdce5a8eU, 0xbccc3ca03c8dea10U, 0xbcf30661be103157U, 0x3dd579a4bc5687c0U,
  0xbc806f50bd90169cU, 0xbd506890be2b477eU, 0xbd51daac3ea0b78aU, 0x3df08660bcaa76c3U,
  0xbc4a6f903e9bfc8fU, 0x3c80d5a83d1e876fU, 0x3e9b4fdabca0971fU, 0x3daaac843e767560U,
  0xbebf88e0be0b3dbbU, 0x3e1a8a98be821a0bU, 0xbe0ba1ee3eb76250U, 0xbdc5a97e3a6c017eU,
  0x3d89cc4c3c803c00U, 0x3d085dfcbbf597c0U, 0xbdf31859bd9bf8aeU, 0xbd9abac5bc943b80U,
  0x3d57c23c3e197d78U, 0x3c8bc13e3e4462fdU, 0x3e8dfaf43e504b7cU, 0x3db115463e61cb15U,
  0x3d9f5ddcbf01f50fU, 0xbd3341303f0d0383U, 0xbe92bc8b3ebefa8bU, 0x3da5b3ba3e51223bU,
  0x3e3a47103dc366b9U, 0x3e6d8437bee22c42U, 0x3e2b3d5fbf0d53dcU, 0x3e18ae273e3d0dd5U,
  0x3d37fdc03c978610U, 0xbe0970c5bdd0ae0eU, 0x3db041d7bda3c478U, 0xbdcfe4febe0cdf94U,
  0xbb0d7c00bc996955U, 0x3c243bff3e2fe1f2U, 0x3d1c6a44bd270d93U, 0xbe083fdb3e1eb2e8U,
  0x3d5a18303e085cb4U, 0x3e78f8d83ed0ab15U, 0x397a03d2bc8cd4a2U, 0x3ca213903e6ea94eU,
  0x3e82ce843de367edU, 0x3e80478f3c696eecU, 0x3d16a3e23e2aeddfU, 0x3dd7cc553e841e5eU,
  0x3da289da3deef538U, 0xbd165adc3c792710U, 0x3dc5b9e73d0b97acU, 0x3d9a9e403cf04270U,
  0xbd8b22783e9ba2e5U, 0xbdc3f6b9bdf649f5U, 0xbda94c643e993deeU, 0xbdba9b39bbc034bdU,
  0x3d42e26cbd548b27U, 0x3d0d114a3d910948U, 0xbe27aa5cbe11747aU, 0x3ce261c83eb60150U,
  0x3dd19958bdadc1beU, 0x3e39bbc3bc2b0e7cU, 0x3bfd0274be0d9b7cU, 0x3d3d80983de7a89cU,
  0x3d3851d4bd72adfeU, 0xbd6c1ff6be0b9a3aU, 0xbe9f4c923dd1a160U, 0xbed258d63d567cc8U,
  0xbd8b51093ca8e570U, 0xbec0a36fbe3bf8efU, 0xbe116e3f3df5f270U, 0xbda3dbe8bed494e4U,
  0x3d19dcd0be824991U, 0xbf3a041fbc1599d6U, 0xbdfabe73bf47f656U, 0x3e06e322be15d603U,
  0x3e2a7f37be537227U, 0x3e6534edbf103423U, 0xbcf1b586bd10c4e5U, 0xb9c57544bf0fc2feU,
  0x3d9c5538bdce8abfU, 0x3df841183da53efaU, 0x3da0f8323a4e5900U, 0xbdc4c6dc3e017eccU,
  0x3dce1cb0bdfdb2acU, 0x3d36e378bd3aa8c2U, 0xbd785f30bdb55930U, 0xbe11da6fbdb50db2U,
  0x3c7d0d00bdc34996U, 0xbcd91d003c4741c0U, 0xbdf93c753e084a6cU, 0x3d856be23cc9c698U,
  0xbdd3568abc32ff00U, 0x3db9ba063e035748U, 0xbde0d24cbe0ac66bU, 0xbe10544abd85f021U,
  0xbc4f0420bd78c688U, 0x3d8257623e00d4f4U, 0xbcfd1ab8bd96a479U, 0xbdd83684be0cc9b6U,
  0xbba9fce0bdc8ff8cU, 0x3db9c4f43dc6ec10U, 0xbd90725d3deff1e8U, 0x3e0c016e3d735564U,
  0x3d7636983d591f34U, 0x3d95236abaa28880U, 0xbd601b96bce0c5c4U, 0x3daaa0cabe0c7f20U,
  0xbe038ad93dde0d38U, 0x3df79f14bd66ab88U, 0x3d95215cbdbaee18U, 0xbd460662bd74054cU,
  0x3bc0c460bd9fd1baU, 0xbdad17ccbddd4359U, 0xbe0e23e1bc66e2f0U, 0xbc9fb29c3dccf328U,
  0xbd6450463d8036f0U, 0x3d8aebacbdb921daU, 0xbdb25c24bdb64053U, 0xbd7c1f083d1f53a0U,
  0xbd81d989bc8e95f8U, 0x3da5befcbd71ebeeU, 0xbda45b803d8c2524U, 0xbde5dbf03db5c5d2U,
  0x3de4d2283d2d6e6cU, 0x3d56c9e8bde4050eU, 0xbdac12a2bd182404U, 0x3db3c480bde08fc2U,
  0xbcfe13fcbdebb096U, 0x3d83e462bd8653abU, 0x3eabfcabbdf4e809U, 0x3dbf91d63d861682U,
  0xbdeb11cc3e194506U, 0x3e30b4eebed761e7U, 0xbe838dbd3e2a829cU, 0x3bce3ffe3c84a0cfU,
  0x3e01021c3e105a3fU, 0xbf09dfc13e074ea7U, 0xbdada95bbb86c7beU, 0xbb8f46c0be286d27U,
  0xbe2519c9be8e5162U, 0xbd101620c00dbd3aU, 0x3fc82c133dd8f429U, 0x3f18636bbf415e91U,
  0x3d7c54c43df86e8cU, 0x3d7e885cbdf92955U, 0x3d920b77bdf3399fU, 0xc00deaf4bd91b2ebU,
  0x3d3594a4beb400beU, 0x3e11102a3e820f68U, 0x3e927e1fbf587e99U, 0xba2f09003d29be79U,
  0xbdb632243ea1a295U, 0x3e3a07a8bdf3c322U, 0x3e81ee103e9fa92aU, 0x3d65e278be83d651U,
  0x3e3e0e403e814953U, 0xbeee1c3b3f5cc041U, 0x3e6545ee3d295c3dU, 0x3e75e026bd559fcdU,
  0x3dc1ea32be00b811U, 0x3da14af8394ae800U, 0xbe69f30f3dae0e6eU, 0x3d89f11bbd911635U,
  0xbe049fa6bd8d2a00U, 0xbf9e553fbeafe042U, 0xbea72874bddb89ddU, 0x3ddf834cbf876d48U,
  0xbdc4f29cbeaf158eU, 0xbf8146d93e5b7414U, 0x3e8dd336bf584d46U, 0x3c9f32603d630611U,
  0xbdb7159cbdcbb9bcU, 0xbe6725aabf5c0cffU, 0xbd78d9a3bf87a32eU, 0x3dc3fefebf9504c5U,
  0xbddeec83bdb115e7U, 0xbd16f6583c8c2cb0U, 0xbdfa60063d7341e8U, 0xbe9d3cf3bca6e0f4U,
  0xbdd4c764befda023U, 0xbe749490bf2ca0b4U, 0xbf0109103d9138a0U, 0xbda910583e507a8bU,
  0x3de354943d91272fU, 0x3c8278e1be769b07U, 0xbe56c70c3ef54ebfU, 0x3d3287e0bf21446dU,
  0xbf7f4366bf50e9e6U, 0xbd171c5abf08248eU, 0x3f484ac5be23b608U, 0xbeee56bdbe7f0f31U,
  0x3c9728c0bd28be5cU, 0xbbb042403d97ce5eU, 0xbb7c58903d9ac0e0U, 0x3e30c5ffbda90fbaU,
  0x3d8bf496bdfdf9aaU, 0x3d92568e3e6dddf6U, 0x3e132e3cbf07f45dU, 0xbd91a0f33e41e44cU,
  0xbcbfc3843e8e2522U, 0x3d4232a8bd30f4d5U, 0x3f2a64c73e619576U, 0x3d5d689cbe24cce2U,
  0x3cd041ac3d8d344fU, 0xbf4b63d43f1880a8U, 0x3d8273de3e93eee9U, 0x3de4e2123d280783U,
  0xbd9b0f523d065ad0U, 0xbe007e6c3d0a4550U, 0xbe80148d3d748b74U, 0x3d905d4d3d0a0fc4U,
  0xbda447ccbc0b5ab2U, 0xbd801971bec00ec2U, 0xbe3ec28e3e35ae73U, 0x3d3d86d0bcf68461U,
  0xbdf107fcbe6ac031U, 0x3e7589cc3e8f22f2U, 0x3eb90af13e446504U, 0x3dafc0cc3dac8578U,
  0x3e042fe33db86a0bU, 0x3e067972bf6d0ebdU, 0x3d4dca74c044a7bbU, 0x3d7a78313de1bec3U,
  0xbdd5c09c3e06dfc0U, 0xbe0350313dfc6210U, 0xbdb0befabdfcd138U, 0x3d492e743d1b174cU,
  0xbe09a3d93d498972U, 0xbd985eaa3d791e5dU, 0xbd6d78d03d47e50fU, 0xbbadfc803dedd5bfU,
  0x3dccbe6cbdf3c49aU, 0x3d33cfb43dbb10f6U, 0xbc0cc57d3d3cdc76U, 0xbd9d9eebbdbed19bU,
  0xbde4363bbdb664a1U, 0xbdf68dd5bd9165d8U, 0xbdb269a63d13b17eU, 0xbdb7a9edbc20bb4eU,
  0x3de79d68bd73f1daU, 0x3d93b856bd7a2f98U, 0xbded1de2bc0d7a30U, 0xbd37fcec3cece108U,
  0x3da01bdcbdbe0c09U, 0x3de8e1ebbdebb755U, 0xbdfd288a3d9dea89U, 0xbc819e10be07b504U,
  0xbdd0255ebe223e0cU, 0xbe047b47bd95a1ccU, 0xbd28b3b0bd4252c6U, 0xbd2407b23db8c56fU,
  0xbd4d4976bc2060d0U, 0xbe1d03b53dc7a6d0U, 0xbd0065d5bd29d3f8U, 0xbe2b67ddbc4b5d44U,
  0xbddb03423dd97eb8U, 0x3c09ffa0bd7e0650U, 0xbb60e2003d8f1978U, 0x3da7081c3c40fce0U,
  0xbd26ce44bd3810cbU, 0xbd9e3bb5bd8afbc5U, 0x3c06dd403d65bcbeU, 0x3cda0630be0c4eb6U,
  0x3dae52743df94600U, 0x3dafe9a03d9107bdU, 0x3dd58cf83d8d940cU, 0xbdf15567be02a4b8U,
  0x3dce8a8dbe0eed46U, 0x3d79c17e3e0308d8U, 0xbe0e2ae4bd8135d5U, 0x3dc29642bdd6cfbaU,
  0xbda5c6013da5ac42U, 0x3e052ba03e08ef14U, 0xbd61e1fcbdaccb5eU, 0xbdb6edeabdcb4caeU,
  0x3dc2179cbda5e887U, 0xbda5f6113aac69b6U, 0xbd3c8291bd8ba5c5U, 0xbdbcb8003cd0838cU,
  0xbdf629cc3c4e65aeU, 0x3cb24ae43de8b27bU, 0x3d55d3293d518f6bU, 0x3db42db0bdf7302cU,
  0xbd83cf7abe238ce7U, 0x3d42190ebd978748U, 0x3a81d0b73cad5858U, 0xbdbb1569bdb8ef87U,
  0xbdca9159bcd1bea8U, 0xbda0771a3db1b136U, 0xbdf182d23d84184eU, 0x3d203d58bca49344U,
  0x3d3a91a0be13846bU, 0x3bc03779bdbd231cU, 0xbe200854bd986209U, 0x3ddfcb74bd851d8eU,
  0xbbbb4f003d3b0363U, 0x3d2fd8d23ddabc17U, 0x3d60a141bcd22754U, 0xbdd0aacabdaee396U,
  0x3c2e6b8e3de56315U, 0x3d9aa53abddf24b9U, 0xbe22e490bd1aaaffU, 0x3d402cf9bda9ba3eU,
  0xbdb6cd123da7718cU, 0xbb6aef40bc227750U, 0xbcb6ccb0b9f4cc00U, 0x3b3749063ca6b448U,
  0xbbedaf40bb731225U, 0x3db3ec50bdb585adU, 0xbe21c8c63d6eb1a9U, 0xbcd569f03cd9d6c4U,
  0x3e04facebd057c3dU, 0x3b62676dbdf1881eU, 0x3dc41b0b3ce1c17dU, 0x3dfc7b803b991cc6U,
  0x3da1a5debd6cbfb3U, 0xbe213e1cbe008479U, 0x3d5f9ded3cb3f7b0U, 0xbe0d0214bad605ccU,
  0x3c9b25383df5dff4U, 0xbd534bcebc40b750U, 0x3df609a93d5cfa1cU, 0xbeb64f1a3de43388U,
  0xbdc6dd083f1109c3U, 0x3e31b3883e9d545fU, 0x3e0fde8abde3de45U, 0xbe0906c13e8b9698U,
  0x3de11564bdc6eb61U, 0x3e91c9063d35ee91U, 0xbf5b6c963f2a71eeU, 0xbcee9af03e0b616cU,
  0x3c8f408b3e9419aeU, 0x3dc5e7d1bdf7102fU, 0x3daa7f10be775126U, 0xbe7b58e73df5c30bU,
  0xbbecdd20bdcc9564U, 0x3cbc03f83e11a63cU, 0xbe3ba05ebe02e1e9U, 0xbe9f0d23bd7026a4U,
  0xbdb24a7abc4c6ffcU, 0x3d88a3883c2e7bc2U, 0x3c9730b8beb4a337U, 0xbab2dc803d2b8fe2U,
  0xbdf291983e5714aeU, 0xbd3b95963e851dbbU, 0x3f5531783e4b2a9eU, 0x3d1d0a603dd56909U,
  0xbe240b823ca5a05cU, 0xbeee86483ea86448U, 0xbd55f5f63e580beeU, 0xbe164c703bf9ea13U,
  0xbdc94564be05f6ecU, 0xbde553aebcfd79e8U, 0xbe655a4cbdbb2e12U, 0x3e3d2e8c3c586530U,
  0x3daec6103e23692eU, 0x3ccfb2c13e28d37bU, 0x3cb898bf3e1c8d45U, 0x3c8c03103e385d63U,
  0xbc837fa0bee03347U, 0x3e804526bdd26263U, 0xbe7a6ff13e70a65cU, 0x3c32c3403d5bf897U,
  0x3dbac5b43e05a0d8U, 0x3e690025bdeb17e4U, 0x3d5cc0d0bf2bcc4bU, 0x3d1d46e23ed1e604U,
  0xbc09bb803d048188U, 0x3d8aae22be02590aU, 0xbce991cfbde4ff48U, 0xbf6a679c3df96178U,
  0x3e0b5f863f8024bfU, 0x3e2b0d423ed7273bU, 0x3e40542bbdbbe151U, 0x3deebfb1be6b080dU,
  0x3de745fc3e11ad16U, 0xbfdaa59fbd4d9827U, 0xbed175223bea3847U, 0x3df0b7b4bf324804U,
  0xbe3997393efff576U, 0xbddbc36fbed234d7U, 0xbe7b75b0be5f49f1U, 0xbf4534cabc90620dU,
  0xba2e5e00bd842eefU, 0xbd92477fbce87788U, 0xbf40aa29bd913e42U, 0xbe17170bbcec6c6cU,
  0xbdbbac66bc297f38U, 0x3d1cf0d43d93bfb5U, 0x3d6ddc17bfb54b02U, 0x3c80fc683e2b5e37U,
  0x3c4880503ed0e249U, 0xbe0423bcbda90cc4U, 0x3f8db0463e90496bU, 0x3e0ccb52be7147e0U,
  0xbde69112bd28a1c4U, 0xbf4602d33ee1cc6eU, 0xbddf14a03e99cbe2U, 0xbded13b6be766f9cU,
  0xbdeda160bdf14b3aU, 0xbc7c3e303da3e226U, 0x3eb7c0393df05a04U, 0x3f075b4d3e0bb05cU,
  0xbdc451593dfaa627U, 0xbee68c8fbf036e41U, 0xbe3a5d413e7b021dU, 0xbc996af8be2faebfU,
  0xbdfc4cc0bddbe658U, 0xbdf40e863e42e53fU, 0xbf347cf3bdca711aU, 0xbe12e2133da9fb47U,
  0xbd221678bf00c66fU, 0x3e21e1b9bf594b61U, 0xbc49b1c6bf94d312U, 0x3e56f9dfbeafe7edU,
  0xbe0522a5bdcd4119U, 0xbccc3e00bd7cf918U, 0xbdee94293df52124U, 0x3cd8fd773dd933f4U,
  0xbdcb05d03de0d3dfU, 0x3df48b453d80ec90U, 0x3de2bf99bdcaf786U, 0xbc8fdf58bcbe020eU,
  0x3da46d42bd7f68b0U, 0xbdd452dfbe1d6f2dU, 0xbc42310bbe1398aaU, 0x3d3595a43c9e6e80U,
  0xbdda689ebdc1b100U, 0x3d9bb9ffbd925d41U, 0x3d4cb6633cc14d7cU, 0xbe1d49d5bbe29948U,
  0x3c90b9e0bd81f135U, 0xbdb3d510bd8a472bU, 0xbc98aa2dbd6c3a72U, 0x3dcd716d3d9d688eU,
  0xbd9244efbdf43006U, 0x3de0e762bdbe5ab4U, 0xbe0ff625bc8872dbU, 0x3cfbbcb0bdf52d4fU,
  0x3e09ec38be4d35b4U, 0x3d33bc873df72918U, 0xbdfa8ff1bd967488U, 0xbd6c1394bbd5f8eeU,
  0x3d219547bdd33291U, 0xbd6eedbf3deaa323U, 0x3de56b21bbd5ed75U, 0x3d45e4f8bc5d52a8U,
  0xbe0a98643df3cc7cU, 0x3d594c10be0379daU, 0xbe0bb69e3d628160U, 0xbe1d2f0a3d78f674U,
  0xbdea63d03d9ebb7dU, 0x3dd710993d8c7698U, 0x3c4e1b3b3cb9d112U, 0xbc8fb5303d98e33dU,
  0x3d06acb83d0b4a9bU, 0xbe16ae453dd4d276U, 0xbc9354e0bdb4e702U, 0xbe024637be27f04aU,
  0x3d8fcb59bbb67bf8U, 0xbdc4776bbda747d1U, 0x3dee61d33db4939eU, 0xbdbf9a4d3c5dae8dU,
  0x3e0e65983dbefa0eU, 0xbd091514be02f64cU, 0xbe04f7fbbd8d7fe9U, 0x3b6b10a4bd8a1716U,
  0xbdfa50123dc054a5U, 0x3cbe76163cbb236aU, 0xbb17d7393ca2a365U, 0x3d615b703ccb85daU,
  0xbd0f2e7ebdd232eaU, 0x3de792eebe18ff66U, 0x3deb7040bda15383U, 0xbc0d2d403df86503U,
  0x3de67facbdbe634bU, 0xbd318fc3bdecce43U, 0x3dc98438bdb3376eU, 0xbd8e71c8bdf78e09U,
  0x3d2a442cbde65c58U, 0xbcf072343d93ade4U, 0xbd690d8b3d56c600U, 0x3d8af8ae3d9a1824U,
  0x3dbad29c3c6d67c1U, 0xbe0247e1bd8f010bU, 0xbd901dbcbdef1cd8U, 0x3d138860be0ee1dfU,
  0xbd9c03b4be145d1aU, 0x3cda4946bdf1f95cU, 0xbcaaeecfbd24086aU, 0x3cb740083dfa8a1eU,
  0xbc984a22bdb41951U, 0x3da20bb2be02beedU, 0x3d86d6853cf40c36U, 0xbd4f36d9bd865aaaU,
  0xbdcfec72ba5ef700U, 0x3ca53040bad4e380U, 0xbd60e7c43e05b78cU, 0xbd0aff233c341d60U,
  0x3cf6c4d0be02f5a9U, 0x3d4504dcbd8dc272U, 0x3dd9371bbcbd7112U, 0xbdfa8a86bbc17d29U,
  0xbe020b833cbd1c42U, 0xbc86c18a3de8bc22U, 0xbdd3ee0dbcae0b73U, 0x3d2586f4bc8d0a00U,
  0xbc9cd794bd8658ceU, 0x3dedd03abe0fc76fU, 0x3d917e67bdabd4f2U, 0xbdad7d05be09be16U,
  0x3d770b7cbde7b410U, 0x3dc95e123ddf3674U, 0xbfa298193b9e0be0U, 0xbf1967d1bcc96438U,
  0x3dfd10d8be5c5878U, 0x3e1a4f7ebe7991aeU, 0xbf574502bdaba59bU, 0x3c397c213ea35b88U,
  0x3d265e4cbda58f8dU, 0x3f48d98bbea06abfU, 0xbc271b8c3f84e9c6U, 0x3d5d32b0bec5fcb2U,
  0xbe64b73ebe8caf09U, 0xbe50a00ebf6729d8U, 0x3e79a187be87a38bU, 0xbf3c0a98be36653aU,
  0xbdf6624abd8d35feU, 0xbe08a3a2be01b036U, 0xbb97e4da3c86a058U, 0x3ea37ddebd95f12bU,
  0xbd89fca2be2ba5fdU, 0x3e2252d6be552d17U, 0xbe2a3e5bbed5f975U, 0x3d5295c03e940514U,
  0xbdc4a4663f019aceU, 0x3e0c925c3e6a9bb3U, 0x3fa78f073e94fcf9U, 0x3dc585503dd3f9caU,
  0xbe352096be12eeedU, 0xbe8a02563e4ffa25U, 0xbea6d0fe3ea11b69U, 0xbd98d1063da4622aU,
  0xbe0b58c2bcf75104U, 0xbd6a286639cf8000U, 0x3f05299b3d0269f8U, 0x3eedb430bd513a96U,
  0x3de417c43e8934e0U, 0x3ee36d13bea3181eU, 0xbe45f0073e32fc0dU, 0xbd8a47c33f1c159bU,
  0xbdaafacc3dcb919aU, 0x3ebf7b95be6b08b7U, 0xbda393203ee802adU, 0x3cdad5f83e7039a0U,
  0x3c77843abec88071U, 0x3e097a80be843839U, 0x3e0e32a23eaabf6aU, 0x3eabb2723ee6db8eU,
  0x3dae6020bddc6298U, 0xbdd181fbbdbbfc2aU, 0x3cecf061b99dfa00U, 0xbe265eafbcc80780U,
  0xbde869a8bc7797faU, 0xbe14187b3cf2dc3eU, 0x3db8ded4bd9ccf22U, 0x3dc9a06abe06b8b4U,
  0xbd81e5eabdfe8659U, 0xbd617a85bdd1ea20U, 0xbd51a377bdadafc4U, 0x3dfcefacbc146a46U,
  0x3df1b8f7be206fe1U, 0xbd481d7abdd65c59U, 0x3da951493d7f6ce7U, 0x3cd943023c630b0aU,
  0xbbb95c60bc9440e8U, 0x3d21ef8cbd50e836U, 0xbdfd33ffbda73fcfU, 0x3d05b8c3bcf9a3c4U,
  0xbda50f943da079d0U, 0x3b5e0732be1089f4U, 0x3d85ffdebd90f543U, 0xbd7827543dc7b9d0U,
  0x3e08f6bcbd071d74U, 0xbdb3097dbe03d249U, 0xbd4d2eb43de2aa28U, 0xbd896d94be24a411U,
  0xbe14c9bebe0f7905U, 0x3dbe453abca53604U, 0xbdf91d3bbda1262aU, 0xbc345eb8bdd439f8U,
  0xbdb35e00bc98c998U, 0x3bce73c0be12bce1U, 0xbde3cb73be0e48f7U, 0xbbf78cc2be13bab0U,
  0xbd1c61083d6f51ecU, 0xbde8ceefbda264b8U, 0xbd2bdc36bdf63879U, 0xbdce7fcc3df7a463U,
  0x3cf72f503df2c665U, 0xbe0f38a2bc6ef31fU, 0xbdffa4fb3de299b8U, 0x3d9edcf23dc2f01aU,
  0xbe0c809d3db6628fU, 0xbd4b4dd4bca1ffb8U, 0x3d68a39bbbbf9dd5U, 0x3bd4df9d3cd4d07eU,
  0x3c08d2403da95818U, 0x3dc014623d119c68U, 0xbeb1426ebd99aba3U, 0xbf03d59b3db23cf2U,
  0x3d950e203e85aac6U, 0xbc1d1405bc6751ebU, 0xbe727857bd945c48U, 0x3c2381003dd3b5a0U,
  0x3dcc070ebcdab8c4U, 0x3edb92cbbe205864U, 0xbf0416c23f377eceU, 0xbd7c179abf1b092fU,
  0xbdf4ea4bbea5a227U, 0xbdf2a7f4be497d34U, 0x3f51b664be652b1bU, 0xbe9215dabf83aceaU,
  0xbc9bc1c0bcc6e6d4U, 0xbdf34e713dc18e06U, 0xbef49c77be06d046U, 0xbe04341f3e0610eeU,
  0xbd6aba12bee4b6d2U, 0x3db80f813d9ad17aU, 0xbda08109bf5dd853U, 0x3d83aa803d160836U,
  0xbe10ce353e942646U, 0xbe2115033da44c36U, 0x3fa29eff3e819e86U, 0xbde07533be5355c1U,
  0xbded8d853d55d3e8U, 0xbf01ff313d224a2aU, 0xbdd34f9b3ef85d70U, 0xbd890982bdf91c31U,
  0x3d901b463d9a080cU, 0xbd4660983db62cc4U, 0x3ea6b632bd142210U, 0x3ec422a0be0fbb51U,
  0xbdf7317c3e3aa6d4U, 0xbe4b7a6cbe6e7ba0U, 0x3d95bb073e10df8eU, 0x3e0ea990bdd5621aU,
  0xbe113037be3d7c04U, 0x3d0a9b263f70a963U, 0x3eb784f1bdc7bac2U, 0xbd81b7213ea46725U,
  0x3e65bfbbbd0cee25U, 0x3e142097bf35fbbdU, 0x3dbce9c7bf0a97bfU, 0x3e0bf593bdd59a05U,
  0x3e0f69a63d05d928U, 0x3dbb2c9c3dd74a0eU, 0x3d47963e3dbb0390U, 0xbce9147dbe11cfa5U,
  0xbd6585b2be1fcd30U, 0xbddbe4cebe1f354aU, 0xbe0f2cb6bdf71237U, 0x3d259e943d11059fU,
  0x3dccf630be51a884U, 0x3d8936aabcdfd8f5U, 0x3df8224dbdc97af3U, 0xbd88d7453ded8645U,
  0x3d379def3dc2c3c6U, 0xbda55b06bdf86cbfU, 0x3d872df1bdd5a3aeU, 0x3dc321f5be0d856dU,
  0x3d4a78503d79e064U, 0x3ddc5510bc7ba5a0U, 0xbd5ddcb1bcfc81dcU, 0xbd1e2018bd753da4U,
  0x3cd30dd03d6a0e95U, 0xbe035e163dd75691U, 0xbe1d7dc73d99ec61U, 0xbcf5a9883dca2ae1U,
  0x3c17ff803d82a412U, 0x3dab18a5bd16d468U, 0x3e248c56be0cd7f1U, 0x3e093bd2bdc8e2c0U,
  0xbd86e325bdbb9d42U, 0xbdf2bea9be1cd97cU, 0xbd16b17c3a015982U, 0x3cf0a494be08a451U,
  0xbe1131063d76fb64U, 0xbdaab704bdcc0daeU, 0xbdfdff963debe2ecU, 0xbe248a5abdc87714U,
  0xbe12c31bbe104536U, 0xbd9781dbbe0808f2U, 0x3d92ae04bcde6248U, 0xbd9c81f13de14fcdU,
  0x3d090b043d734cc8U, 0x3df5d523bdac2e2dU, 0xbd50b81dbe281194U, 0x3df7e828be1d8f3cU,
  0x3b277f16bde533e5U, 0x3dc448c0bd25f9b2U, 0xbda153683d641d4cU, 0x3c3b73c33daa603cU,
  0x3e084f40bdc69b8eU, 0x3dd5813a3db23620U, 0xbe9992763e0dfb58U, 0x3e12a6963d6ca320U,
  0xbe053c3fbe3b9900U, 0xbdfe173abe40c081U, 0xbd9bb9cbbf0fe8f3U, 0xbd221d6ebe86f31dU,
  0x3db2609e3e403a3dU, 0x3d59f503be1dea6dU, 0xbe1d0dc6bdb5215eU, 0xbdbea022be1f2be7U,
  0xbcdaf91abea98f80U, 0xbed921b13f02b7dfU, 0xbd28a0a9bc91d865U, 0x3dc5f01abe99b3f0U,
  0x3c079010bd1dfae2U, 0x3de564143dadd57eU, 0xbe8431ea3d60b008U, 0xbe1ba86ebd9aa5cbU,
  0xbcf9e108be1ed4d1U, 0x3e3204ebbe2850e0U, 0xbdd430923d79833aU, 0x3dcc36703e5eae2bU,
  0x3cf2c858be3b8284U, 0xbeed5b843e27fea8U, 0x3eea921b3d847eaaU, 0x3d204d38bdcc25e8U,
  0xbd8a9c99be2e5ef9U, 0xbe944a5ebf1c3fe6U, 0xbe5f8c30bd3c9341U, 0xbe1dbec8beb2b813U,
  0x3d3acf783d545a1cU, 0x3cabfab83e02efb6U, 0x3e36bd12bd70dd0cU, 0x3efca7c43da84af0U,
  0x3d8804b83e682fc9U, 0xbd9f248f3dc6155cU, 0x3d09d09a3e8b71e8U, 0xbdcc1aab3d851446U,
  0x3d3c96f03d7c7582U, 0x3d05ad103e5da0f4U, 0x3eb46971be5331a7U, 0xbc7a74103e493827U,
  0x3ee5a4db3e59e874U, 0x3eee2f40bf138946U, 0x3f00cfcb3dcdec5fU, 0x3c76092d3e8219e7U,
  0x3bc3de403dfa03a0U, 0x3daf9674bcefaf58U, 0x3eedb935bc2527f0U, 0x3f8b1eb5be039891U,
  0xbe084877be4c6b2aU, 0x3d83fa633dad8df1U, 0x3d9165eb3e7a27d8U, 0xbcae374c3e222adbU,
  0x3dd7de0a3e6462a4U, 0x3e09ba903cbd022bU, 0x3f6d6d983e55610bU, 0x3da76c103dffba2aU,
  0xbe8cebad3d981927U, 0x3e8226d43f1dec66U, 0x3eaab7293ec53b4eU, 0x3e0f9bf8bd2e4873U,
  0x3daa7074be02f43bU, 0x3da58832bdb4a619U, 0x3e50f6303d13a810U, 0x3e96f435bb8fdbc0U,
  0xbd7cc2623e7bf579U, 0x3d968e8d3d71671bU, 0xbdf990053e360268U, 0xbd7371a43e0656f6U,
  0x3d0e9728be1ffdb8U, 0x3df60cf5bd2d2972U, 0xbe9407c53e4ff52dU, 0xbc1b33803e046038U,
  0x3e73a607bd86dff2U, 0x3e541b7dbf0cc513U, 0x3e7ff2eabe88c3d7U, 0x3e9a5cec3eb9871aU,
  0xbe0c49e03dc668d2U, 0x3d4e664cbe05b0d8U, 0xbf1b4bf63cdab408U, 0xbf029031bb0fbcc0U,
  0xbdbd89fabc538279U, 0xbf4a87a2bebe18a8U, 0xbea86df4be237040U, 0xbce9243cbf281dd5U,
  0xbd855b1ebd4e0bfcU, 0xbf80a4d0bd509feaU, 0xbde61203bf8d0e53U, 0x3e10212abe90b4ccU,
  0xbb43b4babec83f31U, 0xbe075df2bf8074c3U, 0xbed7a7bf3e9319baU, 0x3b8975f0bf9d1611U,
  0x3dddda38bdd53a52U, 0x3db23f3ebd00d1c8U, 0xbdf867d9bde4594aU, 0x3d8eb9d0bd5d8a3cU,
  0x3b8f17c0bda1bd4eU, 0x3c6abdd03c5b4980U, 0x3dab487ebd9397eeU, 0xbdde6cb3bc3465b0U,
  0xbdb6c8dabdaf30f7U, 0xbd9ce85a3e132428U, 0x3dc906623ac71280U, 0x3dec6494be09b686U,
  0x3ab9ee00bb2ef340U, 0x3d1f4cec3c901790U, 0x3df487b43c7a9130U, 0xbd3a2a363d0f6d10U,
  0x3d7f9fe83df0d76cU, 0xbe0033a6bdca762dU, 0x3df211743e0da60cU, 0xbde115863d9021b8U,
  0x3d417a8cbdb3bb10U, 0x3ce69bb8bda07097U, 0x3da4916a3d5dbb7cU, 0x3d0b08b4be01b1caU,
  0x3d577d34bcdc0c24U, 0x3d5855c0bc6f5a50U, 0xbd8d9464bd52fac2U, 0x3d7ec34cbe03ef43U,
  0xbde673d5bcc2877cU, 0xbc1630803d4e0ef0U, 0x3dc3d9d6bd87f82dU, 0xbd96e03fbdd4b289U,
  0x3e062c66bd0693dcU, 0xbd75d70a3e09c936U, 0x3d397e0c3d92c868U, 0xbd6e6da63d54f9c8U,
  0xbcd5e66cbcf73834U, 0xbdba89d4bdaf2f09U, 0xbdb5ed0a3cbfc148U, 0x3d63d2a0bca3254cU,
  0x3e0d874abdff4f91U, 0xbd0680a0bdc1a36cU, 0xbdca6844bba135e0U, 0x3d3e9520bdfd0532U,
  0x3c51d690bd2fa1f2U, 0xb9723c003cd20e08U, 0x3d348a54bdb68dffU, 0x3d925c083cd65b30U,
  0xbd9e4619bd6f2b7eU, 0x3df00394bc97f0a8U, 0x3db4bd11bd34ea22U, 0x3d3ce11d3dea67dcU,
  0x3ccbc090bcdeca31U, 0x3e0a4f013e9df1b9U, 0x3e8c1586bfb20335U, 0xbd1d73ac3df452a5U,
  0xbbf97a40bd07e21cU, 0x3e2127c6be2718a7U, 0x3e9f1f733e89c518U, 0x3e09a0d2be926803U,
  0x3e812d253e51504dU, 0xbe6b14d23f6de7caU, 0x3ebcf14ebe15d584U, 0x3efdb13dbd863f68U,
  0xbdde427b3d6ff038U, 0xbde5defc3dbb3b10U, 0xbeadb31e3db1aa40U, 0x3df8924a3dfafce0U,
  0xbbb939c0be5ea168U, 0x3e5344b3be758042U, 0xbe4f88cfbe4c40b1U, 0xbd952ee43af6a927U,
  0xbd864cf5bedd5309U, 0x3e448b1a3ea3e407U, 0x3f1c6d4dbd035365U, 0x3e0ea97ebe86a875U,
  0xbe91d597bdb0e97bU, 0xbe1887c2bf77a7d8U, 0xbe96b588bf541468U, 0xbe21bc363db0cdb4U,
  0x3dfcfd483d304dc8U, 0xbdb62a54bdea17e4U, 0x3d950f4c3ddd8910U, 0x3c5adfa8bbd0b940U,
  0x3df96dd8bd092921U, 0xbe168cb8be0ec0c1U, 0xbe76177d3e268810U, 0x3ddfe8a03dbf097bU,
  0x3dc1ce743e83c708U, 0xbe66dcb53d6498b9U, 0x3ea3d4e63dd4d912U, 0xbda2e0383e375c8aU,
  0x3d38819bbd44e394U, 0x3e3c1b72bf422fdeU, 0x3b4c63b93e8f403eU, 0xbfd497e2bd68bb59U,
  0xbb8fdae03d056a60U, 0xbcfe9f90bcd3dd28U, 0x3d496936bd8194a2U, 0x3ce5ed483dce7460U,
  0x3d2acfc8bce266abU, 0x3d894898bbe7b5c3U, 0xbdb22f87bd87cc95U, 0x3deeb24cbde16bf9U,
  0x3d37cb903daffc4eU, 0x3df5dd59bca2ac07U, 0x3da68598bc1647daU, 0xbdec586abdb28851U,
  0xbdf9bfef3d7a8674U, 0x3dcae0b13dd7a4d9U, 0x3ddeaad0be1b27dcU, 0xbe06f7d03dda14d4U,
  0xbdcd56f2be0a0a8cU, 0x3db104223d255904U, 0x3ddc509abdfc3b29U, 0x3db375df3db532e6U,
  0xbd19034ebbaf554eU, 0xbdf0b86f3d71a5c7U, 0xbd7307adbe26212fU, 0xbc8c9170bdf39ac4U,
  0x3d90270abda4b620U, 0xbd257111bdece603U, 0xbc9bf17ebd736388U, 0xbdb7e33abcc55789U,
  0xbdf3c7f9be0e685cU, 0xbe2bc5a43d972099U, 0x3d88a0f53dcd3935U, 0xbad1239bbdc78eacU,
  0xbc792d20bdacb442U, 0xbdc4e928bd266f7aU, 0xbe07c9f23d1abd14U, 0xbdd651a2bdbddd34U,
  0x3d8bd38abd39d695U, 0x3d8d2d0cbccccb12U, 0xbe0cc4fbbdf66e93U, 0xbda85b1c3d8eb849U,
  0x3c1cc1c0bd53c37aU, 0x3d530362bd9a9257U, 0x3cf35d563c60987cU, 0xbe0e5a1fbdba4831U,
  0xbdce6aa0bbc07a96U, 0xbe0e1220be301af9U, 0xbdc2bc593d622440U, 0xbc0142e3bcf3487dU,
  0x3daa5a84bde64b5dU, 0xbbb724e0bd82b3abU, 0xbd9cf176bcdc6870U, 0xbe40d3febdf56d42U,
  0xbce213e8be260aa2U, 0xbe1b46d83d4de368U, 0x3d5ea7f63da3abe7U, 0xbd6c8c523d78e76fU,
  0x3dd927c8ba1d5685U, 0x3c727e13be19d4abU, 0xbd229509bccb8b57U, 0xbdfd5c8ebe1aa363U,
  0xbdd7162c3d065bedU, 0xbe15e7ce3dfa911cU, 0xbca3c0453d9e262dU, 0xbe15b6503da35ac3U,
  0xbdffd8babd082cd8U, 0x3caa59803dfafe64U, 0xbc164e4f3da072f8U, 0xbbb96032bdf8f556U,
  0x3db50abc3c34b25cU, 0x3c74c6093da6145bU, 0xbda681cebdade2adU, 0xbd272b963d42095dU,
  0x3dc376cebe0e54cbU, 0xbd3b013f3d2679f3U, 0x3d3be095be12e09bU, 0xbde7e777bde1f5f9U,
  0xbcff3f983d107ca4U, 0x3d5e8e99bd817878U, 0xbcf5ac823d9ae3e3U, 0xbe057a9bbc2d2322U,
  0x3e03c1eabd10dbb6U, 0x3d919b76bd6d4feeU, 0xbdbca7d73db43d2eU, 0x3c2d5ba8bda2811eU,
  0x3d86a74ab987f991U, 0xbdc9e5e4bdd2a8f8U, 0xbd952a2cbdd0726aU, 0x3c74f9603cef22dbU,
  0xbd9a3eb3bd94f613U, 0xbe12de16bde237aaU, 0xbe0ec331bd5a27b2U, 0xbe05d22b3d4fed12U,
  0xbd804b14bdbf1ebcU, 0xbdf3e422bd77cf9cU, 0xbe1b69a9bcd11d4aU, 0xbd34e8e03d120f7eU,
  0xbd84e65ebd1d0ee4U, 0xbe13657ebe0986a3U, 0xbe25cdf43ba81ce0U, 0x3d84f704bde8282fU,
  0x3e0faf4abb89eefbU, 0xbe14efa9bb72df13U, 0xbdd564363db3fec6U, 0x3c8a5e0abe364137U,
  0xbe0b49afbca852b5U, 0x3dc2ab22be13774fU, 0x3d22867b3cce5c25U, 0xbdea079ebe5007cdU,
  0xbb8596a8be1bb74cU, 0xbc49f765bcc71729U, 0x3ce4b80c3dc3befaU, 0xbe29be51bb4016f2U,
  0xbdaafd61bde5a7a2U, 0xbe0ac3c03d9300a6U, 0x3d4697803dc98638U, 0xbd9a5b143e0f0d50U,
  0x3ce4dea83c75751cU, 0xbdb9e685bd8d6952U, 0xbdda3aedbdbbd0adU, 0x3db8a0da3c9b9405U,
  0xbc93b1b83b811f1fU, 0x3ca6e7a1be02a311U, 0xbcf514eebe87aa08U, 0xbc34fff03cc38759U,
  0xbc7dc89f3d15f1b0U, 0xbe16fd29be38ee99U, 0xbda03fa8bdf99875U, 0xbe147f35be13d312U,
  0x3d8789183ddd8828U, 0x3ddb16b4bde05536U, 0xbe2ac1823e0bf176U, 0xbe7a8c3e3d360540U,
  0xbd4403883d205121U, 0x3d073e36be596299U, 0xbe2c93ebbcca9ef9U, 0x3d6d47f43d734a6fU,
  0x3da294683d749cc8U, 0x3d8d9cc03d8c42d0U, 0xbd95b9a23da7634eU, 0xbd30e49c3d88cc1bU,
  0x3d4a6352be27374dU, 0x3c3a720a3c98d50dU, 0xbe20d6d0bda03bc3U, 0xbdf708fcbd9fa176U,
  0xbd4b741abcca9cdcU, 0x3c6d1fe0be067e46U, 0xbc96512f3d1140a4U, 0xbd5f34ec3d691538U,
  0xbdc8f5e5be389bb4U, 0x3d66d147bd2d98fdU, 0x3dbbc64c3d82940eU, 0x3dcde6fabd755380U,
  0x3daadebabda7bdc9U, 0x3dfec7203dacb236U, 0x3dbc234ebd5eaf85U, 0x3daebb66bd9b3defU,
  0xbce14afabe0d8abdU, 0xbd45005bbd78e0c4U, 0x3dbe6cab3d31f2bfU, 0x3d30a3873deae487U,
  0x3d62c9e0bc87db28U, 0x3dfa88343d0b9cc4U, 0xbe1515ddbdf609cbU, 0xbd2c2c3b3daeb4baU,
  0xbd7dd506be213eb2U, 0x3cdb48003d048a78U, 0xbe0845663d6e3b5cU, 0xbd01ee20be0e5970U,
  0xbd5cb2163c31de9fU, 0xbd26d1bcbdd9c414U, 0xbe254db3bd7228fcU, 0x3de398fcbe446d1cU,
  0xbdcb62b83d73649cU, 0xbe2927f93ddd01bcU, 0xbcfc76a63d3f095aU, 0x3c274236bdae323cU,
  0xbd71835cbcef1218U, 0xbcee414cbe05ac4cU, 0xbe16ff7fbd371710U, 0xbdf4184fbd6114e4U,
  0x3db91400bd96a6e3U, 0xbb577adcbe23067aU, 0x3d9db85fbe174951U, 0xbccc51d83dcc30f6U,
  0x3e037888be21b510U, 0xbcd2d2b3bdf6477aU, 0xbd7a24b2bd0c3d6bU, 0x3dbba276be39ce05U,
  0xbd9279543db123e8U, 0xbde4da583dcd0e48U, 0xbd2ea8543d708f14U, 0x3dc3b8213ddc634aU,
  0xbd4bfc78bd322d32U, 0xbc9e7ddc3cb08d70U, 0xbedbd3023a24e300U, 0x3e0fa53a3e09007cU,
  0x3d79c2703e6c5da8U, 0x3d4986513d9fc51aU, 0x3e4081ebbc832402U, 0xbd41574d3e3955acU,
  0x3d2c60243d585beaU, 0x3d941f08bf1d1b6bU, 0xbedcdd653dea53e9U, 0xbcac777cbf57c7eaU,
  0xbf2767c53d906247U, 0xbe2bf041bf2019c7U, 0xc026a484bef5c3d5U, 0xbf73ae60bf6c1d02U,
  0xbe010c30bda28bf1U, 0x3cf1cd40bbc52ce0U, 0xbe3306efbe114bd1U, 0xbeed391f3c1a87c0U,
  0x3d517ca8beb06cdeU, 0x3ddd94f1be26bac7U, 0xbe0312edbe942d2bU, 0x3c867ff03d8192c7U,
  0xbe0a79223e7be7f9U, 0xbd2f07ea3e47bd18U, 0x3f4cffe13e6418bcU, 0x3d492418bd27f4e0U,
  0xbda5ad723ba6095dU, 0xbee7abc53e174308U, 0xbe4ac6923e8d9df9U, 0xbe800ebd3b822015U,
  0xbd97b987bc9c9610U, 0x3da35bb8bd379b58U, 0x3e8cb0dcbd191156U, 0x3ec4665a3d10ca80U,
  0x3df0f9e03e41328aU, 0x3d0a3584be0bbe85U, 0xbcf4bef23e92b52cU, 0xbdf97021be1ff35dU,
  0x3db72502be8f9543U, 0x3ecd71f93f3e8c0eU, 0x3ec75f2abf21dd55U, 0xbcab07b83e61e2dbU,
  0x3e995508bdc4ce57U, 0x3ea239d8bdc0ac9eU, 0x3eba1002bfa7fad7U, 0x3e7f5e61bddfcdc2U,
  0x3e082c5ebd998dcbU, 0xbdc396f43db0f28eU, 0xbd9951543d816992U, 0xbd9279b73d4dc904U,
  0x3a6728003dd1fe6fU, 0x3ecbfcae3e0343e3U, 0xbe31d0093cc3ec5aU, 0xbdf586c13ed36a70U,
  0xbd59dd0c3eb523c7U, 0xbf6bb897be1edfb9U, 0xbeb579e33e959ed0U, 0xbcc474fcbf1cefb6U,
  0xbe9c9da8bddf060dU, 0x3ce5ec29be8e5815U, 0xbf01e2acbdd3c69cU, 0xbfbda466bfb6ad9aU,
  0x3bc8fd203da074f4U, 0x3c20e1b03d3763f4U, 0xbe3f0fd7bdc98d4aU, 0xbb39fff43de3fea0U,
  0x3dda7cf0bdda115fU, 0x3c63c6c83de841f0U, 0xbe257d09bf22b8e0U, 0xbdf0ca483d97bc1bU,
  0xbd9f7e6d3e1b6e4aU, 0x3d6ce246bd2823a4U, 0x3d43e9833e36ac31U, 0x3da843da3d4a04caU,
  0xbe237f733e03537dU, 0x3da617e13ebc2cc2U, 0xbe03c0983eb61910U, 0x3dc60db63d9cbbb7U,
  0xbcafd60c3dbe8254U, 0xbe128c793df182d8U, 0xbd2a3e4bbba5ed60U, 0x3ea56f86bdae1bbaU,
  0xbe04a4a13e1c0665U, 0xbdf217523e075a6aU, 0x3e8967963cbf0d7aU, 0x3dffed883d243992U,
  0xbd88a0c8bfa599c3U, 0xbeb6e2f5be9db7c9U, 0x3eba464d3eb3bb06U, 0xbd8bf727bd97cddeU,
  0xbc942992bd1cd42eU, 0x3e2cd17cbe45b397U, 0x3e5579febf86b0a3U, 0x3e036dd83e98f66eU,
  0x3d3a82643d931238U, 0xbd9c0762bd4f0bdcU, 0xbe1c2281bdad05aaU, 0x3df12bf8bdd0465aU,
  0xbddad226bd50771fU, 0x3db36015be1b590dU, 0x3c6663193c954131U, 0x3c8375d03d8c016fU,
  0xbdb000cb3debdd1cU, 0xbd22e23abd68048eU, 0xbd6d5817bd69593cU, 0x3deba7f03c5a5171U,
  0x3bb46a943ccbbc2dU, 0x3d18adfa3e0a1d7eU, 0x3df17aacbe02d1fcU, 0xbcda85dd3bdeff20U,
  0x3e0b5bfc3d43c434U, 0x3cd31e20bad7db80U, 0x3dd39ea63daa2688U, 0xbb00768dbd49a8acU,
  0xbc7696e0bd3b932dU, 0xbcc61f8bbc5c398bU, 0x3ddda4173dc7edfaU, 0xbdbd5088be114a34U,
  0x3d3e018cbc0c4390U, 0x3d645fc23d801083U, 0x3b9fb0863db9afddU, 0x3e0b23f03cc5a0bbU,
  0x3d2336edbd9f59d3U, 0x3d7150b03dd85f96U, 0xbcad5f883d86a2adU, 0xbe1cf4b63c3524dcU,
  0x3d6a665cbcdbf5d8U, 0x3d8c283a3cd511a8U, 0x3d406073bdcf174cU, 0xbe12c2043d2d2ddcU,
  0xbe05f73fbd097a36U, 0x3d0eaa08bd5b63efU, 0xbbe28ed4be17146aU, 0x3d90d910be14d3f2U,
  0xbdce759ebd6aad56U, 0xbde2ccfc3d1c24f9U, 0x3d4209b8bcaf158bU, 0xbd18872cbc6fae87U,
  0x3cc1fcde3cb465c7U, 0xbe0ea3773db52ce9U, 0xbdf92d68bdb9b26aU, 0xbdf4dd9a3ddbc63aU,
  0x3d6697103c892f10U, 0x3d117d283d48c860U, 0x3e5a49c93d85bba4U, 0xbf484c113d7d0e88U,
  0xbd28a4d0be46e1b8U, 0x3d90a1393defa586U, 0x3e615d18bf29a709U, 0x3df7a0083d9f5c1cU,
  0xbd9a50be3e7e51dfU, 0x3ea3fc24be2a447bU, 0x3f02ab7d3e243d9cU, 0xbc9d23b0be369401U,
  0xbd96da883e41ff69U, 0xbf0360fd3f315e17U, 0x3e68412dbe0655d4U, 0xbd28215f3e09bb0cU,
  0x3c946e88bd8eaf7dU, 0xbdb7a844bde68ea4U, 0xbe63972b3dcaaa5aU, 0x3d84e5303d68f61cU,
  0xbd3c7d2abd8f829cU, 0xbe7051eebe4dd341U, 0xbe8d0e3bbd7141e0U, 0x3cbf1310be0d59b5U,
  0x3ba2fce03d8d0471U, 0xbdd266de3f093237U, 0x3f14d2ddbcfc9048U, 0xb9d268003ca9e89dU,
  0xbca46f1cbc4b3045U, 0xbe804467befd3bffU, 0xbddff9d1bf9f2c75U, 0xbb0446fcbed2f431U,
  0x3de20c9c3e047504U, 0x3cfa1438bc317e50U, 0xbc257742bd184626U, 0x3e9ebc7f3cac81f8U,
  0xbd495e203eab20f4U, 0x3ea02cf7bea36e44U, 0xbefa04a93e277c00U, 0xbd8b49db3e30e8c1U,
  0xbdd4531c3e5af0eeU, 0xbe46333b3e06c1f7U, 0x3e82a85a3e253ffbU, 0xbd2bc8c43ee92e60U,
  0x3f827429be3bf2d4U, 0x3e6a003fbe9e48d9U, 0xbed9f9653ea687a7U, 0xbe2c6271bed7562aU,
  0x3d59dcccbd8f9f1cU, 0x3e10ec3e3dd00eecU, 0xbde183bc3d5d0414U, 0x3d26b0c9bc1f0380U,
  0xbd9269a7bde2991aU, 0x3cafa19e3db6de5eU, 0x3da415a5bbf613f7U, 0xbcac71a4bda56b61U,
  0x3e08df84be015e79U, 0xbdaa3703be0bda32U, 0x3d8063143d03a2e8U, 0x3dced7ea3c973585U,
  0xbcdf9aa73e0828ceU, 0xbce9cda83d93e35eU, 0x3dd3a2463da7428fU, 0xbdc9dcadbda3673aU,
  0x3db514323d7df930U, 0x3bf9b3203d6714c8U, 0x3d973c45bb64c1c0U, 0x3dbff714bd7af3eeU,
  0xbd98e1acbd949c60U, 0xbc4a1d42bd06ab1fU, 0x3d10da3ebdecbf71U, 0x3d7cfb8cbc8ea39eU,
  0x3d9a7c8cbce8939fU, 0xbe04ed0c3d674c58U, 0x3de62a1f3ddb1369U, 0xbb765340be135e3bU,
  0xbe248e21be0a5da0U, 0xbe0994b3bd13aba8U, 0xbe0e961c3db9349fU, 0xbde73ecbbbb584b3U,
  0xbd01795abd56d7a6U, 0xbd97e5cebd5d4404U, 0xbe13e1ba3d54e4d0U, 0x3c78985b3dd3d912U,
  0xbda32e6abe0fbb6fU, 0xbdfd19e03da3bbd2U, 0xbd9b7a6dbdb48677U, 0xbdecadaabe0e5fccU,
  0x3d1f9f30bdbaaeaaU, 0x39a79d1fbe17f8bbU, 0x3d8a6c183d27405eU, 0xbc68f0303daa72b2U,
  0xbd7706e73de16d1fU, 0x3d397817be08a052U, 0xbdf7bdbebdc55141U, 0x3ddc4a3cbd9659c8U,
  0xbdbafc943da3cf34U, 0xbdf871bc3cb55d00U, 0x3cdfc6e63d9f03e2U, 0xbe35c7a73cc6bcf8U,
  0xbcc7f148bede54ccU, 0x3e8e52733cf8216eU, 0x3c3df4103e70e669U, 0x3dc7d7963e97a3d0U,
  0x3b015a003e6b9c36U, 0x3d3fa4303e540e57U, 0x3f6557273ed7a37bU, 0xbde89176bc66d712U,
  0xbe5400f0bcff9b90U, 0xbed8ce7c3e029c1aU, 0xbe94f6cf3e9d7f7bU, 0xbe0070fe3de212a4U,
  0x3e0c17663d8aaed2U, 0xbe12b52bbb7fb2c0U, 0x3edf6f4fbda0d5e1U, 0x3effec583dc1ac06U,
  0x3b33cf003e21c667U, 0xbf03e5593dc0abe3U, 0x3db56ee63de0d75cU, 0xbd99a913bf39bc9cU,
  0x3c4e7580bf2668f5U, 0x3de6038c3cb47fdaU, 0x3dbe7c24bf3e1f0bU, 0xbc1afb403dc95496U,
  0x3eb1f5a33e34184bU, 0x3e6f0e783d3efec9U, 0x3ea80fecc019bc7cU, 0x3e9dee14bea1c026U,
  0x3d133c58bb598040U, 0x3d7a0c20bdaf6f92U, 0xbe9b1c993c8d1f58U, 0xbe95374c3de914d8U,
  0xbceccf24bb7dc49bU, 0xbe88bf8fbd6cb792U, 0xbe8e471fbe4d08b2U, 0x3dbc3670be0514beU,
  0x3d54a3703da66076U, 0xbdebbe2ebe0b03e5U, 0xbee952e0bdc6a933U, 0x3de38538bea4e5b7U,
  0xbf886239bdd54bdeU, 0xbe150ef9bf67f5d1U, 0xbe0c91923c5eb0a8U, 0xbe11cd35be4e044fU,
  0x3dc379183d140a9cU, 0xbb5c96c03de02ac0U, 0xbe8180913d4bc970U, 0xbe51fa65bdc68cd6U,
  0xbdf9c2c33e28437aU, 0x3e1e5f75ba328b08U, 0xbd25efefbd35b1f2U, 0xbd89daf13eb189b5U,
  0xbdeea21ebcd6c1acU, 0xbe3465c7be1019ffU, 0xbf01baeb3e4cc73eU, 0x3d274e78be7ac0d5U,
  0xbdfc8ffcbd06d2eeU, 0xbc133965bf5e084aU, 0x3cfeb48cbedd82dbU, 0xbdd45b84bf0f587aU,
  0x3e060c863d438f4cU, 0x3dad092ebd6b6cf2U, 0xbc25b1233e06f7c0U, 0xc007961c3d4ea5bcU,
  0xbdf6b2af3d7201c8U, 0xbbef0e22bcfee64cU, 0xbe8ac0a03d905200U, 0x3d892224be5a3c89U,
  0x3c89de603d7cbde1U, 0xbd90cf363db609c6U, 0x3e9ad0e63d8833e2U, 0x3ceb48483e9aeca3U,
  0xbd427514be141350U, 0x3e78ddce3d039929U, 0xbd85829f3ec94225U, 0xbe6ef2fcbdd8f4a5U,
  0xbddbbe44be119d9aU, 0x3de3a024bc874fc8U, 0xbe7ade56bc89b358U, 0xbe0da831bd1306ccU,
  0x3c829c183dc2ae81U, 0xbd5386a53edb5c07U, 0x3efaa320bc912463U, 0x3da60dccbd5557a2U,
  0xbde02a74bf62f571U, 0xbdc2dcdb3efab457U, 0xbe1079c13e4b5bfdU, 0x3e0601ee3df41110U,
  0x3e7695ff3e7d0c56U, 0x3e59c300be1e5c36U, 0x3e3520763c2bbdb3U, 0x3de46ce33e4dc2a8U,
  0xbd391e363c6a4d30U, 0x3e136dac3df9cce4U, 0xbd86a6403d13383cU, 0xbd73027abe04b474U,
  0x3bc287e0bdb6cdd1U, 0x3e038ca3be22966fU, 0x3d564b24bd073fe2U, 0x3e0e58843d159681U,
  0xbe0b35db3dc957e3U, 0xbdafd49dbde48ef9U, 0xbd889610be0bf934U, 0x3c4347c0bd7c8fdaU,
  0xbdb325983ca62743U, 0xbdcefd6c3d9d1e5eU, 0xbd660970bde30e93U, 0xbe07660b3d903783U,
  0x3dfd28c8bd743ca6U, 0xbd121488bdd736c4U, 0x3e1020d23c22b480U, 0xbd9f1109bdb76f82U,
  0xbdfbc5a63cb404bdU, 0xbe0c4748bd6111a9U, 0xbdffe965bda9261dU, 0xbdc521e6bd1205fdU,
  0xbd6ad756bd3b1302U, 0xbda8cf443bb9f23cU, 0xbe0835d6bd42a490U, 0xbde63887bd83dc2aU,
  0xbd865d1fbd1a6917U, 0x3d810615bdc59555U, 0x3d4bf48f3dad894dU, 0xbe26cd0dbdac7eb7U,
  0x3d814f1ebde60be4U, 0x3cc1b198be08b53eU, 0xbe143a733d7c384cU, 0xbcefc679bd8896c4U,
  0x3de063243d917bbdU, 0xba7ae9403dfdb08fU, 0xbdc3ee12bd4a2d3cU, 0xbd9e6f94bdb95ef2U,
  0x3d06272c3d4ccc76U, 0xbd88f2893dde4cbfU, 0x3db66fd3be07c3d9U, 0x3ddd52603d6d74abU,
  0x3d996413bdc99f66U, 0xbe0d70fdbe1818a2U, 0xbc1a54043e12fde4U, 0xbb56b0ce3d33458aU,
  0xbd78f870bda76126U, 0xbdd9f5e43e0d54f8U, 0xbde548e8bd1217b4U, 0x3c0dfb2c3d65b698U,
  0xbde4b59d3d5c41c7U, 0x3b3405aa3c9aed38U, 0xbdeca736bda9064eU, 0x3bb5e5603caa8db7U,
  0x3d5ef9f83d5e36b0U, 0xbdd572f7bd26316cU, 0xbcd397463dd90e44U, 0xbc8ab9403db2535dU,
  0x3d78f836bcc99bf6U, 0xbd200252bd9f9aeaU, 0xbde1a8b5bdef4b92U, 0x3c1d06a63dfb502fU,
  0x3b4132403b583740U, 0x3e0faedc3dc8ed90U, 0xbdd0ae463c27a090U, 0xbd4fc2debdc96566U,
  0x3d5d7ef83cfa3088U, 0xbdbe043c3e0c7e46U, 0x3ca47438bdf1e1c6U, 0x3d3455783c4d454aU,
  0x3e0afe983d025554U, 0xbdced99dbdd98c81U, 0x3d370abbbdff3a0bU, 0xbd4beffa3d6e72bcU,
  0x3cc0673d3d8d20ceU, 0x3cd89be33d5dc520U, 0xbde40c33bd9894e7U, 0xbce9846e3dd8b20fU,
  0xbdd8bae03d4482a8U, 0xbddeae04bd555aacU, 0x3deae4bb3d3d4764U, 0xbdac7bc3be1247d0U,
  0x3d85774cbdef0b61U, 0xbd5a1ea6bdd57bf0U, 0x3ce9822e3cf4fb09U, 0x3da0bc463ca37f73U,
  0xbcec7504bccdc268U, 0xbc5fe792bde4ee2fU, 0x3deee6a6bddbe08bU, 0xbda3b7a4bdd5804dU,
  0xbe0f29093cc75678U, 0xbcdf90153b915480U, 0xbddf96fdbd0203a1U, 0xbd93e1363dd88dbdU,
  0xbd5b52fcbe0e2041U, 0xbcd3a90c3d2f4070U, 0x3dd7f79e3dd2bb92U, 0x3dd7532ebd864f84U,
  0x3dfccc5c3dcd4e4bU, 0x3d961dcb3d362aa0U, 0xbd8445ccbe0dc634U, 0xba904e80bcb3ff37U,
  0x3ddd94a0bc2ccfd1U, 0x3ae9d6d9be19f50fU, 0xbcbf2a09bda6ec71U, 0x3d9d46e8bd43d599U,
  0xbd0d3b31be2d9358U, 0xbdf3ebb6bc7cbba0U, 0xbd8011aabdf1ccb4U, 0x3d8b6384bdd157e7U,
  0xbcb3e7743d1b3ec4U, 0xbdcc79ae3ba41240U, 0x3ca4b918bdbcc890U, 0xbdf73608bdddd95eU,
  0xbc3d0c80bda486d6U, 0xbdab688d3c137fc0U, 0xbae6b8fabd572b57U, 0x3c14bf40bdd3a5d5U,
  0xbde0bef0bde18e50U, 0x3d54e840be089337U, 0xbdaf47d33ca55d80U, 0xbdeaa4fc3cdb1d22U,
  0xbe0e5fdabe165d5dU, 0xbda6739a3d14a388U, 0xbc1565123d0b55c4U, 0x3cfb8fc7be0eb7ccU,
  0x3d4252683dfec910U, 0xbd08067c3d3dd544U, 0xbe06b107bd745adaU, 0xbd32f13e3e0d001aU,
  0xbdbcab76bd9a8f42U, 0xbde8463ebc013270U, 0x3b7e51e7bdaed8ffU, 0xbd3e0fccbbe4b720U,
  0xbd4c3646be0786d6U, 0xbdc6bafcbd886d4aU, 0xbc1a26703d484360U, 0x3d764b68bca6bbdeU,
  0xbd5d65683df68b08U, 0xbe145cf13df24cacU, 0xbe1ffcbb3dc8992cU, 0x3d7ce3023b796500U,
  0xbd714866bdb9508cU, 0x3e0ae984bd1758c8U, 0xbe1141fb3de90010U, 0xbfea4430bc856308U,
  0xbc7d9a70bd282288U, 0x3ead0834be494a75U, 0x3ca34d2f3cc92ba3U, 0xbe1223573e3cbd29U,
  0x3e0e01ce3e988c2fU, 0xbea145cebee982ffU, 0xbe14e80ebee6583eU, 0xbafaf300be19ee75U,
  0x3bf18f1cbea96996U, 0xbe9f8ac3bf584cbbU, 0x3c447550be5b5fe4U, 0x3e227dd8beb6ff89U,
  0xbd49353e3bd618c0U, 0x3e11f3c8bced0590U, 0x3ea0fca03d6444b0U, 0xbd20491c3d1d8668U,
  0xbd3b02d2bebe3144U, 0xbefe3cb93dc63e71U, 0x3e4fd7dabedfb083U, 0x3e0647a6be391dc0U,
  0xbe0d051ebeb8fbe0U, 0xbe5759f83d22d843U, 0x3f220960be56b769U, 0x3db0e3c43d232ce2U,
  0xbe63b3c23eb22e79U, 0xbe8e60483f138eebU, 0x3d36e22b3eba5a24U, 0xbeae8b3ebeb5b862U,
  0x3c66cbb0bdc20548U, 0x3dd4bb60bc6d2260U, 0x3d2b1c803d1f7a10U, 0x3e1488643c812db0U,
  0xbd12992cbd2db335U, 0x3e3d8df13d31e4c2U, 0x3c8051983e1fe679U, 0x3db0ddf43e26efd3U,
  0x3dc307243e8cde28U, 0x3e9f6ee4be7d3403U, 0xbf2c4dcd3ebfc6caU, 0xbe125d31be329a62U,
  0xbc4cccc93e63697bU, 0xbe092f273bf7a913U, 0xbe8221243de38396U, 0x3e69f8fa3e94eb6bU,
  0xbd1901363d856272U, 0xbd94788ebdcfbbcaU, 0xbe1c32babd603de6U, 0xbce72b58bcda9f08U,
  0xbd9238f9be62d6faU, 0xbe3ece25bebb2be2U, 0xbdf45d483e6599a9U, 0xbc7992193d1caf4bU,
  0x3d9c89f03eef95ffU, 0xbf250f27be96ce6cU, 0xbedad68f3eab78c4U, 0xbdd528d2bfb6e8bdU,
  0xbf9e7c6ebf10f20bU, 0xbe0c1ef8bca480b5U, 0x3fe84cb13dcd3733U, 0xbff94a0ebe8e91ccU,
  0x3cdc9530bcce09c8U, 0xbde91ababdd72b42U, 0xbc92b801bc98b748U, 0xbe25aa81be011247U,
  0x3d8b01b0bea02950U, 0x3e1ad8163e7e1810U, 0x3e28e858bf4e91aeU, 0x3d6b7e203d4df84bU,
  0xbd9446ec3ea2ec9eU, 0x3d4728a3be288962U, 0x3d3487843e980433U, 0xbd1bc620be359a27U,
  0x3c2150023e14a774U, 0xbeb3c65b3e83ee6dU, 0x3d71295a3eaf0734U, 0x3de5131cbe4e0adaU,
  0x3d33eef4bd4b54daU, 0x3c5bd740bdb585c9U, 0xbe6d7a76bd7bc086U, 0x3d37019f3df2f9b4U,
  0x3dc757783e24c203U, 0xbcb4e430be55ed5dU, 0xbdd5c2fa3e1e4458U, 0x3dc2c8d63da1bd09U,
  0x3dc7cc3cbf8f60d0U, 0xbebe4edd3f31982bU, 0x3e7026353da7cb53U, 0xbd8924e7bcb6e857U,
  0x3de91a9fbe294456U, 0x3e0bdb61bf87e77bU, 0xbd855316c0825218U, 0x3c84290fbea48455U,
  0x3d55c48cbc63a490U, 0xbe02e853be087468U, 0xbedfcad53d0f0afcU, 0xbe813960bcf049b8U,
  0x3e004cfc3da6bc2eU, 0x3e5eca83bdb76ef0U, 0xbe02ef6fbb654397U, 0x3dd1774b3e28a8b8U,
  0xbe034bd13e7ef7e3U, 0xbd8a04ec3e0e5c63U, 0xbd083b57be13fdd4U, 0xbe0291883ded3809U,
  0xbdfd7c7abe2ce885U, 0xbe3cf8433ea8aab7U, 0x3c570a453e7a2ff8U, 0x3cbb771d3cc1c3bfU,
  0xbcbd87dc3c97c600U, 0xbc5fdcf03d4faeacU, 0xbd954df6be0db965U, 0x3ee14ba93d4bfda0U,
  0xbd2d9e7a3e810edcU, 0xbe4b13bdbe6852a4U, 0xbe036d703e347fdeU, 0x3e014980bea7bbd3U,
  0xbdff8b2ebf0392eaU, 0xbd16a49a3f06aa73U, 0xbdf91580bf10f398U, 0xbd39da643e45abb9U,
  0x3e3c06bbbce4df3bU, 0x3ebf88a0beb621c2U, 0x3ea77f52be82e518U, 0x3c9e2c99bdf0da42U,
  0xbd0b8ddcbd8abe2cU, 0x3d1e2d8cbd0b17a4U, 0xbdb3d32f3d01c378U, 0xbee57163bce508e0U,
  0x3db252ec3e399b92U, 0xbed1f38f3d589370U, 0xbddc40f3bdbe8fd0U, 0xbe0d8c35bf0a9675U,
  0x3dbf7c4ebe834e70U, 0xbf1bd5f23ce1673bU, 0xbeb68280bf28c535U, 0xbd9f52a33d208b6bU,
  0x3e824f8dbd314ba6U, 0x3db54b7abea6f6ddU, 0x3d1fbfb43cc844daU, 0x3e80c69abed4aa7cU,
  0x3cd397383d7914d4U, 0x3cec49903d94508eU, 0xbdc9900dbdc73886U, 0xbcc69d49bc658740U,
  0xbde5e7c1bf413465U, 0x3decaaad3e5b6195U, 0x3d2a74b0bf20d3fcU, 0x3da6ec3cbca903bfU,
  0xbc633d403ce6fca1U, 0x3e34a03bbcb26f48U, 0xbf163e0c3dff1431U, 0x3db41750bf13bd6fU,
  0x3dfe48173da0f788U, 0xbedfffa93f04bcceU, 0x3de689dabdafb621U, 0x3e66bfa0bc981c2bU,
  0xbd0c18b63d4641d0U, 0x3d9079ccbdb13d61U, 0x3c8746eabdc38270U, 0x3ce3f0443d9185c8U,
  0x3d539a9cbe08c639U, 0xc014cfcbbd881cb8U, 0xbd93a6b2bc7f5959U, 0xbd06ded8c0134b14U,
  0xbd280280bf292171U, 0xc0033fcdbe80eb9eU, 0xbe9ed659c03140a2U, 0x3e12837a3dc51ddfU,
  0xbd9ef049be36d8b1U, 0x3b176d47beec74f0U, 0xbe3f2af3c034c812U, 0xbe080233c0283f10U,
  0xbd945f963d4132acU, 0xbc2876a0bd05fe38U, 0x3e6196b9bd9c4a11U, 0x3d0f2404bdf41560U,
  0x3b836c403cc66d90U, 0x3dde1dc03e499cd1U, 0xbde275133db468ebU, 0x3d9532683ddd2759U,
  0xbd2003383eb72a62U, 0xbe20f8ec3e1b9e06U, 0x3e5736a03d978f37U, 0x3d95350abdd52240U,
  0xbec9d4073e3a86d1U, 0xbc3631123f7913bfU, 0xbcca8be03e0d7ca1U, 0xbfc5725dbedf6898U,
  0xbd2224a2bdebb4c0U, 0x3daefce03ddfde4cU, 0x3dfc4e843d7da028U, 0x3df3f0b8bdabd8a6U,
  0xbdbf74c33d1b5062U, 0xbd872223bd53625eU, 0xbae32df1bd083a24U, 0xbd569bdcbd601168U,
  0x3e1142d6bd92cde4U, 0xbdfbd8d0bd8d8f59U, 0xbe0d9d6fbddf4985U, 0x3c791d20bdb7de44U,
  0x3cf4f9ee3d8222f8U, 0xbdbe327f3d28fcdcU, 0xbda518dbbdfa382bU, 0x3daf5ad83d8f7046U,
  0x3d3aa1543dc08902U, 0xbdb523acbd1a20d6U, 0xbe020fb83da33274U, 0xbcf6df24bdf7cf24U,
  0x3da035f43dd589acU, 0xbdaa9296bdbbacd4U, 0x3d5cfdb73b11fcf7U, 0xbe049137be129a28U,
  0x3db6010c3db50e38U, 0x3d8d6af6be07f9fbU, 0xbcdd76803d045074U, 0xbdb22161be19e8b0U,
  0xbd8d16e2bd13aa8cU, 0xbca97a16bcbe8a60U, 0x3dd59cb6bdeb38ccU, 0xbe0961803db2f8b2U,
  0x3d291a683d8eba48U, 0x3df39ab43d667e50U, 0x3dc4e2123de6deb4U, 0xbcdd82b0be0ace44U,
  0x3e11ce98bc29058bU, 0xbd22feccbe1ef568U, 0xbd6cb98ebd824a0eU, 0x3cbc2588be0aa1ddU,
  0x3cf731483cbc4cfeU, 0x3def029cbacf29baU, 0xbcdb4f44bdae0c24U, 0x3dcf4266bdecfb54U,
  0xbd9406993cf8ff57U, 0xbde323d5bb65a4c0U, 0xbdc0e86bbdbf0a8eU, 0xbd18cd36be0b2eb1U,
  0x3d3105343c8327d0U, 0xbe0bbd21bdb117c3U, 0xbe024fc4bd9c7a95U, 0xbec6eb8f3ded2c08U,
  0xbe01a8cebe77f711U, 0xbd09b8f0387f02c0U, 0xbe984966bebe0a41U, 0x3cfbb40fbe26225fU,
  0xbda5f1c63d579b1aU, 0xbeb94b44bd1a7ddeU, 0x3eea1c25bd1059b1U, 0xbde4c988bdea23e3U,
  0xbe155633bd90139eU, 0xbec366103d90fe67U, 0xbc8dd3ae3deebd7fU, 0xbd875fb8becbabe2U,
  0x3c40da803e00ce12U, 0x3e138ec2bddeac96U, 0xbe1f1c81bb7ace80U, 0x3e1c2ade3ce1fc70U,
  0x3e1103d83cebddf8U, 0xbd552a963d36ad80U, 0xbdbacf153ce9da14U, 0x3c0d9530be46a4eaU,
  0x3dc6cc4ebf864ffdU, 0xbeaef448bd6c3514U, 0xbe8c0030bede3913U, 0x3d8ba16ebe539907U,
  0x3dcf35e5bd9e13b9U, 0xbe2b1d40be7393fdU, 0x3e203d2ebd54e40aU, 0x3ddd51dbbd7b3886U,
  0x3ce009403de98d30U, 0x3a856b003e0fc75aU, 0x3e743744bd8c313fU, 0x3db0e708bd326394U,
  0xbdb940383d90a536U, 0x3e55cef93ebc67d0U, 0x3e75ac34bbb4a25eU, 0x3ddf64383ad12b91U,
  0x3e05d4be3d55f294U, 0x3ee019883e231156U, 0xbcc0ab173e56fcebU, 0x3dfa65b43e2d2186U,
  0x3ee2dbfe3eb72f3eU, 0x3d5734633f22428aU, 0x3ea60d1d3c812990U, 0xbe2531c43f398639U,
  0x3a103d003decc2b0U, 0x3d57f1e83d8808d0U, 0xbc25d1fd3dd30cfaU, 0xbf29f191bd8a20f9U,
  0xbca40844ba158b20U, 0xbd87bb03be080c43U, 0xbe23211a3dfb4b02U, 0xbd146cbe3e3f2de2U,
  0xbb569e80bda51bdeU, 0x3f2ec3c2bc950810U, 0xbf08c9633f08c91bU, 0xbd4d7b08be61abdcU,
  0x3e1b9649be0031c1U, 0x3dab58bebeb8b03cU, 0x401f21aebe60eb1bU, 0xbfa37aad3f55ef62U,
  0x3d3d3a003da05afeU, 0xbd25796abcd86e48U, 0xbe245f2cbd585ec4U, 0xbdba4cbc3db932feU,
  0xbd8b15e0bea32f60U, 0xbe4c49b73d3ee0f4U, 0xbc76cf34bf5756ebU, 0xbdd47f88bda6603fU,
  0xbd0775223e95e020U, 0x3bb711f8be2891efU, 0xbe98f08bbdb61192U, 0x3a8a2c003cac20fcU,
  0xbd3ccfe63d1947a4U, 0xbeaf5bf63e52479eU, 0xbc973d6e3e7a4640U, 0x3e0732a9be64ad1fU,
  0x3cdfa2c8bdd6a73eU, 0x3bc79de03de93090U, 0xbe54c551bd75c7feU, 0xbd9910123e0f534aU,
  0xbd99650ebc0ce17aU, 0x3e4ee0f23e5df34cU, 0x3df0ef5c3e18bf0dU, 0x3d35867cbe457d98U,
  0xbd93197dbfb38bfaU, 0xbef675903ee7910dU, 0x3ec7d1bd3b670017U, 0xbdc0a4853e107907U,
  0x3dbc11343db70de5U, 0xbd48130dbf128e7cU, 0x3e31fac0bddbf7dbU, 0x3e2e5256be8e88a1U,
  0xbd9b06483b1cd6c0U, 0xbd837264bdd5c187U, 0x3defaeb73cdbe390U, 0x3dfdbdbebdd806feU,
  0xbd46caca3c44ec85U, 0xbcefbe603dfd7969U, 0xbe07588d3dee853bU, 0x3ce24c583d225b7fU,
  0xbdafca6abd53ae95U, 0xbcf15e10bdfd56eeU, 0xbe048c6c3d459a03U, 0xbde3ddc63df27491U,
  0xbd60bd243dce0631U, 0x3d4ea832bd0af8e6U, 0xbc6897e33d9f8256U, 0xbe0d3c37bdd01097U,
  0x3db61e343da856feU, 0x3dd15192be0d30a9U, 0xbb169695bcbd2264U, 0xbe11f8d7bdb1d010U,
  0x3da8f2dc3d68e899U, 0xbd572d6abdddefbeU, 0xbd8a72953cc2438aU, 0xbdf18c78bd6fead4U,
  0xbe013273bcbfd918U, 0xbd4aeaacbd5d51e0U, 0xbdc5db213de0fdcdU, 0x3c19cee0be00a896U,
  0xbce20ca0bd5fb02fU, 0xbdfcc4853db9bbe2U, 0xbca674ebbda525f8U, 0xbcad4e15be0762fdU,
  0x3c48d5803e11c5c6U, 0xbdad094a3d6b5d9cU, 0xbb946b2e3d36b300U, 0x3dc4e5f0be1123bfU,
  0xbe0c7938bd5bd95eU, 0xbd979093bde50706U, 0x3cce5448be0d0513U, 0x3df35100bc986f82U,
  0xbdd17e96be1fa12dU, 0xbdd7ef32be0118d2U, 0xbb9abc773dbaf1fdU, 0xbde83008be05cc39U,
  0xbe255178bc0be8b8U, 0x3d9090d03d5a8ee0U, 0x3d4f4d5e3dd5ac62U, 0xbdb73afdbd8e7a7dU,
  0x3d9858023da437d0U, 0xbd83701e3d130768U, 0xbe29a8d63d249894U, 0x3ec07f54bd21a542U,
  0x3da1b81c3decd4afU, 0x3ad3eec1be3282a8U, 0xbe5cb358beaabf3dU, 0x3d300594bbd003bdU,
  0xbde25c853e00f27dU, 0xbc4ef8813c3c6dbdU, 0x3e34bc14be2ca450U, 0xbd9b78213dccffa2U,
  0xbe32bf98bdd790ecU, 0xbf0f9a3c3e99ab38U, 0xbd9672a33dd95cf9U, 0x3cb7bab8bd91150aU,
  0xbb7bafc03d85906aU, 0xbe0198f73d93955aU, 0xbe4f81c93db1cba4U, 0xbe7722fa3dddd5bcU,
  0x3df3a318bdd06064U, 0xbb4a13f7be5f02d7U, 0xbe4aab8f3d7616b6U, 0x3c8ec6d03d574631U,
  0x3dcbe0dcbe1b5d86U, 0x3d835b9ebd972711U, 0x3d0f76d23dc525eeU, 0xbccc42d43d53919eU,
  0xbda75532bdb55251U, 0x3dc6e47fbed3cbafU, 0xbe2d96a4bf3050d6U, 0x3e2276f93dfbd3d9U,
  0x3d174d34bd7b29eaU, 0x3dbf3e86bddcbadcU, 0x3e06296a3df343c8U, 0x3e68ff413d96b376U,
  0x3d487a5c3e08a88bU, 0x3e197829be0ecd0aU, 0xbeb8d5693e835deeU, 0xbdc3eb72bd1e73d0U,
  0x3d18ccd83da3f2e0U, 0xbcda60603da9638eU, 0x3e70aaf63d2a0cd8U, 0x3dd8c5743ec74083U,
  0x3f0f0d6fbe5f2db3U, 0x3e9ee181bf10ea47U, 0xbe9c11143e8de0ffU, 0xbf2a80583e5aae36U,
  0x3d1962983d9c15e8U, 0xbdb68280be10ad66U, 0xbd96307fbd444a14U, 0xbeda1f8bbde60f69U,
  0x3bef6e20be7ecb4eU, 0x3d11b7743e29906cU, 0x3d8e0ea4bf0f7f7cU, 0xbe03c5063e3f06d0U,
  0xbd0d5f7e3e8527d9U, 0x3e3df98ebeaa6b09U, 0xbdf7716c3d4db4fbU, 0xbd2a25d4bd3e2d9eU,
  0xbe75f8d5bd206679U, 0xbe1172033f2a279dU, 0xbda2710b3d9a8434U, 0xbe47949cbe0c5390U,
  0xbde6bcbe3e0dd2ecU, 0xbdc366f63d23f2d8U, 0xbe1cfd4abcb53258U, 0x3d30a13d3db94d28U,
  0x3d448b90bd148d59U, 0x3bbe87c8bd6c3c57U, 0xbcc447afbdf5cc89U, 0xbd5897f6be078e90U,
  0x3d90a0c0bf7adcb9U, 0xbe891002bef82d61U, 0x3e2c3cdd3b5d785dU, 0xbe0f5c94bdaa094eU,
  0xbd2990a53cea3ccaU, 0xbdbcd704be6f8845U, 0x3c2e7fb8bf44ab6fU, 0xbc0fdc6c3c9c4826U,
  0xbda1522c3bdfacc0U, 0xbd111a48bd97d73eU, 0x3ecf4b1fbd76b3d6U, 0x3e931cc13d9e974aU,
  0xbdc5ca4e3db5bdd8U, 0x3e874adb3e07692fU, 0x3df4f10f3df1fdf2U, 0x3e03c0d63ddc8f40U,
  0x3d1d92ec3e42f0f7U, 0x3e4ef33f3e3adda9U, 0x3e1fe895bcf4f212U, 0x3e122e163edd6d5cU,
  0x3f56da1c3de149d3U, 0x3eb545df3ec1a735U, 0x3e4432c03d8925e7U, 0xbf0fdbd83d4c33a3U,
  0x3b8ede403dea0000U, 0xbdc91a8a3ddd217cU, 0x3e149f6abdf3865aU, 0x3e75951ebda34a8aU,
  0x3dc22242bdc218e2U, 0xbd04e587bd2720baU, 0x3c9c317e3d902ee6U, 0xbde44b663e57a242U,
  0x3cc09bd03e91ae13U, 0x3e6d669c3eb17c6aU, 0x3f2f1cc93e158159U, 0x3ce095c83e3827e3U,
  0x3e39ed393c8478e1U, 0x3d7d7b683e5b40caU, 0xbe2854073ee8ff74U, 0x3d6e0a523eb902dfU,
  0xbb053080bcf63644U, 0xbba35bc03b75e880U, 0x3e815066bdd1bbfcU, 0x3efd90aebddee0c8U,
  0x3dffd5583e39bfc1U, 0xbd575949bcdb74e3U, 0x3d11c3e83e61b911U, 0x3de8dc543d7bba73U,
  0x3e0b226ebe2f885cU, 0xbc1eed5ebe241941U, 0xbee432d1be0e0f5dU, 0x3d4479503c0293cbU,
  0x3de0cae1bce29a1eU, 0x3e44a91cbea3e64cU, 0x3e87659bbeb5c6ffU, 0x3da26957bc99a80fU,
  0x3d4d1df8bd87b8b4U, 0xbda776d63d533db0U, 0xbe727c6dbdc00036U, 0xbefe880cbd937381U,
  0xbd881aa3bdb55e33U, 0xbec7cff2be76df04U, 0xbe2771f6bd9fd675U, 0x3d11e89cbea10d83U,
  0xbd93c869be95e33bU, 0xbed7df02be0c87f8U, 0xbd231dacbe8034c6U, 0x3d81d8b4bd365d9cU,
  0x3e13b153be29168eU, 0xbdb58360bda709bfU, 0x3ce8fb1bbd81dacdU, 0x3e12523cbf0ae1cfU,
  0xbd38fad03e0edfcaU, 0xbd8f55f23e139022U, 0x3f11b1163d7ea064U, 0x3f26c8133cd5b0a8U,
  0xbdfe39163d0d2b6dU, 0x3e2072c73ea6039eU, 0x3e31b2893e46b0f5U, 0xbdf8c5123dd46091U,
  0xbd089ec23e5e510aU, 0x3db3a0bf3e435a7bU, 0x3cf532753bc0ac75U, 0xbd3094123e47b462U,
  0xbd8dfdd73e80e915U, 0x3e974c6fbe79534bU, 0xbe7921393e70f95bU, 0xbeb6ca543e2da95fU,
  0x3e11d6b4bcc41850U, 0x3d9be040bcecb120U, 0x3d22883bbdd64816U, 0x3e587692be098606U,
  0x3dbd3a8e3e074ab2U, 0xbe1ca27a3e3d1ba9U, 0x3e82fe1b3e5ed660U, 0x3d0cf51cbcf9d579U,
  0x3de5b038bea17e22U, 0x3e3cc3c13dfff6e8U, 0xbe5e57f23b4492d5U, 0xbdec8fcd3e74a8a1U,
  0x3d4fc311bd3a4cecU, 0x3e1e2fdbbe6b739aU, 0x3df6e54dbf0a3605U, 0x3e997a7e3ec3b702U,
  0xbdeaf2fa3dac85d6U, 0x3df1ef203cd96730U, 0x3d89c71e3d333040U, 0xbe2ee1e6bcabf008U,
  0xbe101b97bd47ab62U, 0xbe804145be744639U, 0xbe4f9a043dc907a9U, 0xbdb94ee3be6e2997U,
  0x3d4d8cf8be342f53U, 0xbf176af5be02ce24U, 0xbe7b9f58bed7d57bU, 0xbdf4311fbe807797U,
  0xbda78ae3bcefe6b2U, 0x3bd39ac1beca791eU, 0xbd93a4b03c9b40f5U, 0xbc548e09bf524d5cU,
  0x3d68eaa4bd23b7d8U, 0xbd5a3bb2bbc8a9c0U, 0x3dd772b7be0b3c65U, 0xbf34a9d1bdcfcfb9U,
  0xbdc4d4fcbe26e933U, 0x3d8b08503d64fc0aU, 0xbe84638abee12489U, 0x3dd279b4bd22cea0U,
  0xbd4bb1843e8a678dU, 0xbe519336be1ea693U, 0x3d4312a3bc5fc9b7U, 0xbd8ecbff3c9fd2edU,
  0xbd30eef7bcf2d4ccU, 0x3ccd18e43e9fd135U, 0xbd9aabff3d9085cfU, 0xbbb6d6eabd4ea78aU,
  0xbd6732203d6567dcU, 0xbdcbf9823d99e278U, 0x3de300ddbd3ee4eaU, 0x3db31c263ca0e418U,
  0xbe113069bd6399dcU, 0xbea439c5bc1e5b3dU, 0xbd386dffbe4f8a91U, 0xbd1287c8beab25deU,
  0xbe003086bf60a044U, 0xbef058d7bf19ae5aU, 0xbe01f0f7bef4e50cU, 0x3d4525f8be85c130U,
  0x3a34514e3dccf15cU, 0xbdc531a4be397d08U, 0x3d26ec47be375486U, 0xbde16ee0bf119aaaU,
  0xbb61fd803d8fd378U, 0xbe0550fa3da5bc88U, 0x3ed055ca3b773f00U, 0x3e89610c3d90d14eU,
  0x3ddcc7c83d5f6bc0U, 0x3e39a3c03d959e8dU, 0x3e28dc0cbca3a679U, 0x3d28c0983e401538U,
  0xbddbe19c3e7b4713U, 0x3cc108c83e0f9606U, 0xbe3473113e621ec2U, 0x3cbc6a983e107366U,
  0x3f1809f63debf6e2U, 0x3dead55f3e79fcdeU, 0x3ddff89c3df8a880U, 0xbdcb1f053e76ee58U,
  0xbdce41ce3d5cf7d8U, 0xbcfae0283d0ea9a8U, 0x3f2200333cda8c90U, 0x3f492e8ebdf5bf1eU,
  0x3e0b27acbee4b310U, 0x3e4dc70b3e8c1550U, 0x3e5602423c3db37fU, 0xbd9922e03e439a7dU,
  0x3d1cd9a83ed39e91U, 0x3e91493f3e93de44U, 0x3f36223a3c4d91aeU, 0xbde53d003e50ef0bU,
  0xbcfe685a3e78c673U, 0xba970fd9bdb783f6U, 0xbe1606803f11a690U, 0x3d925cdf3e45d8dfU,
  0x3d0e279c3d0ce2e4U, 0x3d9799983dd9ddfcU, 0x3eaa18c2bddf9208U, 0x3e9e511bbdcbc140U,
  0xbdc8f9bd3edc2cbeU, 0xbd3031223d152524U, 0x3e6f2f9d3dfa374cU, 0xbd4955403de8685cU,
  0xbc8ff840be479bb3U, 0x3ec9656bbe6b56d4U, 0xbe856a27bc2217f3U, 0x3d6877403e722858U,
  0x3e2c25083e5abe24U, 0x3e88fe27be2ac7b3U, 0x3edc69e6bf00e64aU, 0x3e0dda003eb38d11U,
  0xbc1347503b7df240U, 0xbdf7af82bd6d4434U, 0xbe8e31f13e020ba2U, 0xbf04f8c23dbcbf00U,
  0x3d88219ebe5b6660U, 0xbeb7cb91beb8dae9U, 0xbe5d9aa9be2af6fdU, 0x38d6d800be524141U,
  0xbe053c90bdae5f33U, 0xbf43441cbe70b7d8U, 0xbc7669a9bedc9f13U, 0xbdd90a75be00ea93U,
  0xbcf36653be3101cbU, 0xbdeb37b1bea16c63U, 0xbe5459f8be04a583U, 0xbd79218bbf5ed579U,
  0x3dcbe08abd0ea080U, 0xbdee4393bdfb9f14U, 0x3e145407bd477d96U, 0xc02127353dd8c208U,
  0xbcfda500bec2be7fU, 0x3c3242a43c2ef3ddU, 0xbc8eb05abf1a387cU, 0x3e00e79c3d614827U,
  0x3df0696c3e4f8d7bU, 0x3ea45a863db4fe90U, 0x3f0730563e9619beU, 0x3d69c1f4bdb437e4U,
  0xbde9bb163bfc3849U, 0xbeb6458e3ef55984U, 0x3ca96d0a3eb41237U, 0x3c7e0c933eba1777U,
  0x3db8cbc63d89cdecU, 0xba1f6000bd17c2e8U, 0xbd82e597be122d0eU, 0x3ec942583ce3b360U,
  0xbce08ec43de4f5a4U, 0xbf8fcea23d2e3ba7U, 0xbdd21cd23e1db616U, 0xbd815987bfa66551U,
  0xbd8c7ad3bf90cebeU, 0xbe6441673f48ef6bU, 0x3f0f4172bebb8df1U, 0x3db6394e3e8e6469U,
  0x3e2edfd9be035525U, 0x3e81da9bbee086a2U, 0x3db227e1bf858188U, 0x3e441f6bbf02e186U,
  0xbdc3c45e3db4f2ecU, 0xbdbe54283b01dbc0U, 0x3b9d2a4f3cde98f8U, 0xbedb39a83cb5b5e8U,
  0x3b97c7a03e48cf18U, 0xbdfb570cbd1d1903U, 0xbe6f7514be0b2f66U, 0xbd8547ecbd8adf7cU,
  0xbd1bf304be1a133eU, 0xbe8feb9ebe8144b7U, 0xbee99668be200c9cU, 0xbe0426333d03f2faU,
  0x3ec0f7223d612700U, 0xbe12323cbf46af59U, 0xbd0487b6bdc6630cU, 0x3f31f2cfbec1e04aU,
  0x3d09a2343ce1c2c8U, 0x3d8f9d083e106cdaU, 0xbe0cd90f3e01d3faU, 0x3b9ad47d3dfdf490U,
  0x3dfc39a0be19e8b1U, 0xbdd2b8633dab5b90U, 0x3da8d0703d8fd0c4U, 0xbc1c7de0be08b136U,
  0x3b5afb803c4a5afcU, 0xbdf60c62be18dfa6U, 0xbd3065513cad2a4bU, 0xbdcac75ebddde046U,
  0xbd62f8393d93d790U, 0xbcd9c49f3d26759cU, 0xbe07213ebd2de532U, 0xbdd1b3263deb333eU,
  0x3dce7a743c61ff90U, 0x3d6ee094be01f77fU, 0x3dcb9a773c2ba540U, 0x3dace13c3e07df0cU,
  0x3c865b583dccd033U, 0xbd5200d4bdb25e44U, 0xbcdac054be0bfcdaU, 0xbdc20528bdcf77b4U,
  0x3de8ce083df0e758U, 0x3dfc5538bd903864U, 0xbbd2b140bc68e66aU, 0x3c82d3a8bda7e0a7U,
  0xbdd7c2bebd9f6473U, 0xbd97d5693cd646d1U, 0xbc587c11bdf3c330U, 0x3c35cbe8bc662addU,
  0x3dd57eaabe00ae43U, 0xb9b0d0003df6d838U, 0xbe1bc2a03d34f43cU, 0xbda4db45bdee6a2bU,
  0xbdee8c1b3d4e2d15U, 0xbd666e993d056425U, 0x3dcbc4923d2167a0U, 0x3d3f561cbe1bc4e4U,
  0x3c931ce8be0b202eU, 0x3df3f5753d471564U, 0xbe126beebdd7119aU, 0x3daf2e22bbe57e8eU,
  0xbd3f6e48bd8e7f2bU, 0x3dd16ce3bd696e58U, 0x3df197a8be048a40U, 0x3d884fdc3b996eadU,
  0xbda45bd8bd3897b0U, 0xbd3f52803dfb42bcU, 0xbe29da0dbd373e00U, 0xbe84f1e33dc5b0e2U,
  0xbdb875ad3ebb7a39U, 0x3e3fd13fbf43b610U, 0xbee2c6a83d9dd0acU, 0x3d5969483e4a4334U,
  0x3bc99c00beaa6f44U, 0xbf0731713e03e235U, 0xbf2a5c013ec86e87U, 0xbe03ba74bc4f4697U,
  0xbf05154fbf86fe25U, 0xbc1c41debe9b57ccU, 0x3f50eb0abdf13316U, 0xbeef831fbee473e6U,
  0x3d6b35983da27584U, 0x3d45bf4cbe09b3acU, 0xbd24c226bde72bf8U, 0xbdee79d8bdfe65beU,
  0x3e125e3ebe4f723bU, 0x3e2246a0bc0d4aabU, 0x3df5f87fbf2852e7U, 0xbd6ff0d63e6c5dd1U,
  0xbbf1cbc03e4b27f8U, 0x3e97e04c3dc0d26bU, 0x3e8383793e64be5aU, 0x3dbbb07ebdfe183dU,
  0xbd8a0a103dcd3e35U, 0xbef4c74e3f176913U, 0x3e8508523e1d9304U, 0x3dc939c53dda83f1U,
  0xbdbd9e013d99ed6cU, 0xbc826bb83cf62460U, 0x3dbc34d63dc0907aU, 0x3dbf555f3d77500cU,
  0xbc35d8e03d0ac7eaU, 0x3e91e4d8bdab5832U, 0x3d218cc33dbbb26bU, 0x3d420e403e8053cbU,
  0xbde4fcdcbea819f8U, 0x3e85ee4cbe7b2301U, 0x3e7de9973d77602cU, 0xbd8d06093de4a117U,
  0x3e2555a93e0013e8U, 0x3c2afeb0bf68430bU, 0xbe225e67bddad4a0U, 0xbca2fabc3ec3307cU,
  0xbd8f3325bda2bde7U, 0xbdd8bd4fbdcda2a2U, 0xbd23d35fbda00817U, 0x3b9f459bbdcdd5a8U,
  0xbd69bdbcbd9bdf8fU, 0x3e4898443e2f0436U, 0x3e0d51a3bf0529adU, 0x3d837ffe3dff34abU,
  0xbd783e923ed318ccU, 0x3e8097c13d9b0d13U, 0x3ed0f9b73ec831f1U, 0x3dc1adfe3e25acd9U,
  0x3df4a010bcc6e940U, 0xbea1b65d3e67f51bU, 0xbd9acf433ec9b558U, 0x3c7164463e4d48eeU,
  0xbd0830e23d007cb0U, 0xbe07d554bd93c8a9U, 0x3e77e9dbbe0ba9deU, 0x3ed4a13e3b0b02c0U,
  0x3d7ced303e157916U, 0xbd2219c7be7f8f09U, 0xbe0f17c13eb3162eU, 0x3d141ff8bb293896U,
  0xbe09c949be8baa00U, 0x3e93fdecbdf18d0dU, 0x3ee2a9323e768271U, 0xbc6915c03dc39cf4U,
  0x3c84d484bd265830U, 0x3e6eab31be9e412dU, 0x3e09ea9cbeb430d4U, 0xbd0141633e9e5db0U,
  0x3d4629acbdbe8a0dU, 0x3d9c0332bd80f64cU, 0xbe1dfbbdbdc18f1fU, 0xbe9b536f3d82d0bcU,
  0x3cdfaa10bd8e4667U, 0xbed2efc7bdc257a2U, 0xbd7b0bd8be695328U, 0x3d8d2298be990388U,
  0xbd859cd4bea500bdU, 0xbea01d353e169157U, 0xbe2f75f8bf11882aU, 0x3da1eb9a3bed77cbU,
  0x3ea7a1a0bd913bf7U, 0x3dcea070bd2b1dd0U, 0x3dad97e5be086f15U, 0xbc89fba1be97eabcU,
  0x3d49b948be0eecceU, 0x3dd30a9ebd558110U, 0x3d2bce9a3dd406d8U, 0x3f3f57e1bda5b7b2U,
  0x3c8fcc80be9fa7cdU, 0xbde1b4863d9f2a24U, 0x3dd5008dbdb0e026U, 0x3dce3070b99f7b4bU,
  0x3d335d103dba84c6U, 0x3dfe6f6f3c712322U, 0x3e9204223cf04556U, 0xbd9ed9983e0142d9U,
  0xbe90499ebd194521U, 0xbc8be4ec3eb4fb5fU, 0xbe06c3323e167267U, 0xbe88b9b53e73bb28U,
  0xba82f5803e0e3180U, 0x3d5be738bd7e1970U, 0xbe5d1da7baa27980U, 0x3d04fd133da5d954U,
  0x3d9c3c5a3d37443cU, 0xbe886e5b3e0313fbU, 0x3dc3dc753c4cc5d3U, 0x3ddcc3fc3db858cdU,
  0xbe0ceec3bdc3f39eU, 0xbee70746be30d104U, 0x3ec66dee3e865220U, 0x3e02f892bdd1319eU,
  0x3ce0e673bdeb0e7fU, 0x3c84fb4fbe8a4782U, 0x3d7d3180bee83633U, 0x3e08b62cbe909a6fU,
  0xbdaefd90bde9b22cU, 0x3e00d42c3ddd7004U, 0x3e2d43893de3d9fcU, 0x3ef8b66e3cac53c8U,
  0x3cb01be83dc69c16U, 0x3cc87917be30ba1bU, 0xbd20cf903e4ef875U, 0xbcda10cc3d30b4c8U,
  0x3d83c19e3e94b3d0U, 0xbe59d79abbf9e117U, 0x3e88c8ee3cf283faU, 0x3dfca4543a9dacb3U,
  0x3c326cd5bdaf141dU, 0x3ddcd3aabf626fe4U, 0x3d619bcb3e48ab31U, 0x3baeb739bf24a6b2U,
  0xbe0667dbbd632be0U, 0x3dfea54cb9d10000U, 0x3d8e4f76bd574402U, 0xbcaf29db3d34b428U,
  0xbcd39b683c4a4663U, 0x3ceb2b90be045157U, 0x3dc8419f3d1e0a21U, 0x3d2607bcbdafaa7aU,
  0xbd779260be2924e6U, 0xbd162d36bd29dc00U, 0x3d558ba6bd3003d8U, 0x3da526a8bcbed2b8U,
  0xbe18fd6a3c85272dU, 0x3d2a3d2b3dcbca94U, 0xbd27054f3d95381aU, 0xbccfad60be01ce57U,
  0xbdd731563e0df384U, 0x3d3435dcbcbf2af4U, 0x3d5e436cbd903dd8U, 0xbce12af03e03fedaU,
  0x3d1946e4bccf8cbfU, 0x3d9c6182bdf846a1U, 0xbcb1481cbe1c429eU, 0x3d8e8988bd6ffa24U,
  0x3cd169a8bd84a301U, 0x3dd78724be20604aU, 0xbe0e45c53d9e7887U, 0xbd4df15abc5b0848U,
  0xbde3eb3fbd9cfa75U, 0xbd1e0e4e3d8df566U, 0xbdbb8de9be300f85U, 0x3dcd68e5bd1f4ff7U,
  0xbd9d6ff9bdd4db21U, 0xbcf1ad38bd838a22U, 0xbd6e9aa63def3e3cU, 0x3d4b1db73d795508U,
  0xbdc10b86bd30b785U, 0xbdb14114bda0165aU, 0xbe31873abc8c1e5aU, 0xbdf990313d1316a4U,
  0xbd98b8ae3d45fc90U, 0xbd22d2e2bda10010U, 0x3d096e1d3e0717bcU, 0xbe037a42bd82688cU,
  0xbe274e0dbde4f4c2U, 0xbd9837cdbd9e20bcU, 0xbe1b56a9bd9f49c7U, 0x3de05ce7bdd4b15cU,
  0xbdc828d8bc8c28f0U, 0x3d9aadb6bdd8f2a4U, 0xbf118f23bd859a8eU, 0x3e33ef12bda021acU,
  0xbced569cbef64e2aU, 0xbea75997be8256a0U, 0xbe2f6010beb2c852U, 0x3d20f714beece410U,
  0x3e109726be95ef2aU, 0xbe3d011abe92e732U, 0xbe0b3880bea1df19U, 0xbe050f39bebaf2fbU,
  0x3d09350ebe041232U, 0xbe9b9bcc3eb084e1U, 0xbd67c88ebe1a24d9U, 0x3dc97dc4be49990cU,
  0xbd1cc95a3dacae24U, 0x3e045b18bd1e54f2U, 0xbeab19bc3d554cb4U, 0xbe624b7dbdc3a158U,
  0x3db4aee8be2d3ebcU, 0xbf0d2fc63e52c6a5U, 0xbd5461a0bd636554U, 0xbdc55ed4bf24fc44U,
  0xb9f65000bf07ecc3U, 0xbf20fb4a3e0e91d7U, 0x3ea1ac1cbf9fe99bU, 0xbca81bfc3dc9d1fdU,
  0xbe15d54c3d80c4d8U, 0x3cefaef13e8baa61U, 0xbd90355f3e779cf7U, 0xbe4660ddbf02d6f2U,
  0x3df86ab03d8888a4U, 0xbe08449d3dfc4f80U, 0x3ebf44f9bd88fd1fU, 0x3edc6f90bcd9d464U,
  0x3b15f5c03ee19090U, 0x3dcb63ec3dd61c5bU, 0x3ea093dc3e3a0fbaU, 0xbce236c03eed45f2U,
  0x3cc09dc03eecb51aU, 0x3f09c1e6be24fb46U, 0xbdb8c0bc3eb8413aU, 0x3d57f64cbb819ff4U,
  0x3de5c0353e8a4965U, 0x3e27c7b23faac9baU, 0x3e90e76c3d9ca58bU, 0x3e8f9a683eb8b9ccU,
  0xbd6a0f783da9dc78U, 0x3dab152ebdc36cb3U, 0xbc1f541c3e12a380U, 0xbd5e8aefbe0c61bfU,
  0xbe109a1abd70df00U, 0xbc3a321cbdf8c03fU, 0x3df501acbd800aecU, 0xbdce60d63d8fb294U,
  0xbc34ee603dd889c3U, 0x3d88f8013d19176dU, 0x3ce135cabdec1132U, 0xbc955b08be1c5418U,
  0xbc6adb98bdff8674U, 0xbca5e1ddbe0dd0e5U, 0x3db3a0593dc63d5fU, 0xbe139886bd8e4304U,
  0x3e100cc63e0737a0U, 0xbe0390a43c950188U, 0xbdaf7788bd33396aU, 0x3dc6224abdc8ecfcU,
  0xbc8fb8603c8ef0f9U, 0x3de704f83d0fcba7U, 0xbe1488ebbbdaa1b8U, 0xbe08aca7bde38adfU,
  0xbdcbe9cabd03e112U, 0x3d06fcf13cbd947bU, 0xbdaaa7d63de79331U, 0x3d72e2dcbd296bb8U,
  0x3dce38ddbd0f401dU, 0xbdb5df74bdfde5f7U, 0xbe160ad23d743e3dU, 0xbe1dfa3e3c843536U,
  0x3d792d74bdc4c7a2U, 0xbe002c20bdbb0c88U, 0xbe1fd2b9bdb1c2adU, 0x3cef9e4bbd31a40aU,
  0x3e055880bd11189aU, 0xbe1bb80d3b5159f8U, 0x3dcefe793da419feU, 0x3e0c652cbd9962b2U,
  0xbdcf5038bd854774U, 0x3d97f7d73daa49e7U, 0x3d285367bc924fa8U, 0xbd108422bdd9c542U,
  0xbe0325f5bdc28930U, 0x3d582dabbe10215bU, 0xbd07506d3ceba248U, 0xbe09eda63db42ba3U,
  0x3defeadcbd6edd96U, 0x3e0d3746be0f8f60U, 0xbd52b164bd0ab68aU, 0xbd140d7e3ddf1394U,
  0x3df8ec10bdb72163U, 0x3ca2c6ae3d12dd31U, 0x3b55a08f3d6458deU, 0xbe0978723db1493aU,
  0xbdff852cbe003588U, 0xbdf6bdd93d3bd501U, 0x3df9a287bd9a8d3eU, 0xbd103ab43b2388bbU,
  0xbd982eabbe1f0ee1U, 0x3b6cd4913e0d24a8U, 0xbd79518ebe1bc5d0U, 0xbdeb16c3bdd4aa39U,
  0x3d163dc8bc82ec90U, 0xbd03ebec3d999d34U, 0x3d57562f3d4d1a80U, 0x3ddb8d47bd6ebcf6U,
  0xbd980a493d59858bU, 0xbe088e90be171d47U, 0x3cf012d4bd91ae40U, 0x3d680c40bcf5f3f8U,
  0xbe005d35bdcedd4fU, 0x3dee6b343dd2fd90U, 0x3df585b33ddd4628U, 0x3db5c9b6bcdcfeebU,
  0x3ded01f13d7d1355U, 0x3df5c8723d999654U, 0xbd1134d2bd3cc2e6U, 0xbdc5ec62bda16c8dU,
  0xbdfcfe32bc23f350U, 0x3db1baf03dcb8f00U, 0xbd8bd82e3df522d4U, 0x3dac47b9bcb32f44U,
  0x3d6f6b083c8b82a6U, 0x3d5bd214bbec7e23U, 0x3d3370f2bd6e2764U, 0x3d7595843c96fb4dU,
  0x3d177928bd5c7188U, 0xbc21ea413dc0c29bU, 0xbe139ef53ad3bbf8U, 0xbc6bcdc0be02cddaU,
  0xbcc066023cbe1794U, 0xbde5c3ebbe1e1a2fU, 0xbdf43f4f3c6362f4U, 0xbc7b893c3cdb274cU,
  0xbe0d38dfbdeaf41eU, 0xbdcbcd8abdd0d0c3U, 0xbc8f9499bd45b2e6U, 0xbcae2932bd589457U,
  0xbc833b073d9f2b8cU, 0x3cf033a23d992e6dU, 0xbc82c05e00000000U, 0xbcc7d8f73d144646U,
  0x3d804773bc84c7ebU, 0xbca517b3bce8a815U, 0xbe52d639bcac49fdU, 0xbd825615bccfb73aU,
  0x3c8ee0a1bcb7268cU, 0x3e0bf19bU, 0xbd15b104bd95f5d0U, 0xbd90601dbd35c8f3U,
  0xbe14b11ebd4a04c5U, 0xbc92f43bbd7a5c1eU, 0xbcbc0fedbd1f31dcU, 0x3dea2a8fbd60b268U,
  0xbba7a04bbcd0d53eU, 0xbd42a2b7bd021816U, 0x3d6fbbe6bd1223cbU, 0xbd0216febca123bfU,
  0x3cba8e65bdc8d470U, 0x3cb5cce6bc948e6cU, 0xbd2e9ba3bdf83fb3U, 0xbe001340bd92b694U,
  0xbd5c7468bddecf4dU, 0x3d509d5cbca19717U, 0xbdf05354bdc3b713U, 0xbd47fc3dbd014afeU,
  0xbc993880bc806879U, 0x3dad1e2ebf900400U, 0xbcdce07ebd363e66U, 0x3d5ebdd13d436018U,
  0x3e06cffabf41c596U, 0x3dd104c93eda4e1eU, 0x3c7ee47fbc15c250U, 0xbe266b903edfcfb9U,
  0x3d54fec63e27059fU, 0xbdd586503d3e49b2U, 0xbf06e1c7be0648d0U, 0x3ce91cfbbe1c7cb1U,
  0x3f1b6c733e365842U, 0xbe571a473c750ae6U, 0xbe1643a2bee83cc7U, 0x3e2d3b373bba71feU,
  0x3e7e2fcd3e312072U, 0xbd0446583e1e7737U, 0x3ddfd2de3f20f2a3U, 0x3e903a64be96b6cbU,
  0x3d2ee29b3c0cc7d0U, 0x3e56500a3d197610U, 0x3da753d13f0355a9U, 0xbda60a6f3e4f88c0U,
  0x3f6e12bebd0024b2U, 0x3e6d663a3e1c0491U, 0xbe7f49213e03c2c4U, 0x3e1521713e2a393cU,
  0x3e81438e3e18081eU, 0xbe961f043cb3eb2fU, 0x3e633003bc1449f7U, 0x3e17a8053d493c86U,
  0x3c56d1c8be3ae0ccU, 0x3e45ef833f85c5bdU, 0x3bf493803e51e5acU, 0xbe4656103dc5d698U,
  0xbeaa30b13f399b2eU, 0xbda4ecd0bef7a4b7U, 0xbea7bd96bd912904U, 0x3d9d2463bebee2dbU,
  0xbe682bc23d10b0b5U, 0x3e4afefe3ee984fbU, 0x3f30510ebe3b4964U, 0x3efbe738be1132e5U,
  0xbf00262c3e166291U, 0xbe3b05eebe9efeaeU, 0x3e3c881abd7329f0U, 0x3e0bbb06be2635c0U,
  0x3f1066603dc02412U, 0x3e449d23bdaeb60aU, 0x3d95ba5abef57b37U, 0xbe69698e3f163601U,
  0xbe385c7f3e006277U, 0xbe085866be572f33U, 0x3c06609cbf4bec44U, 0xbe3c6adabf05660eU,
  0xbf593a553e18a44fU, 0xbe77598dbe35c524U, 0x3ec227e5bea92bd9U, 0xbe450f51bdb05a85U,
  0xbdeb92e53be7ea6bU, 0x3e92ba28bd710982U, 0xbd4c56213e7e88daU, 0xbee16114be3ced6cU,
  0xbcbf05f83e35dfb8U, 0xbe8bf7b1bf6602f5U, 0x3d4022acbe09a26eU, 0x3db1bfa2be06e7dbU,
  0x3eb46e7fbf3e721bU, 0x3cb819d63ed06f95U, 0x3eaa41c9bd90a3f8U, 0x3e278b313ec09f03U,
  0x3e67d2c3bd8837e3U, 0xbb1511e2beb58009U, 0xbf3485a6be286d7bU, 0xbf1ab064bd47936eU,
  0x3eb79dc4bd7dbdd6U, 0xbcb1fab03e907cbdU, 0x3e10ff863defd9f8U, 0xbe1ca78c3dda7371U,
  0xbf040ce4bd4d8628U, 0xbd4c944ebd876611U, 0x3d71a6ff3ef3be4eU, 0x39238666bf35d6cfU,
  0xbe5866823e399206U, 0x3e174a9dbe173368U, 0xbd081d353f3e9525U, 0x3e068b223f0ca2cbU,
  0x3f8f33fbbe54dba3U, 0x3e90eff8bbb8d740U, 0xbecb54063e9824feU, 0xbc77d75a3e0c9acaU,
  0xbd0b9cd2bd2799f9U, 0xbda4517b3da3e5edU, 0x3e4ad49cbe4f36cbU, 0x3ef5e76b3c2b9e90U,
  0xbe2b447a3daa5296U, 0xbe180a5b3d9c5e35U, 0xbd8e47403e10eac2U, 0x3e3f55b73d002f1fU,
  0x3ebe56dfbe81e261U, 0xba16bbba3cc807e2U, 0x3ecd8132bd989a3eU, 0x3d184cee3ec13f6aU,
  0x3eac4761bd330866U, 0x3e4bcb2cbf10a96eU, 0xbf33f309be00e0beU, 0xbf680ccbbd39417cU,
  0x3d2db7bdbe3169dfU, 0xbe2a64973f366441U, 0x3dc651823f125f4fU, 0xbd2724d73e2562d5U,
  0xbf7a8dcb3c540106U, 0x3ca9b43ebea55cb7U, 0xbd9d3d9c3e3cd025U, 0x3e54eef4bf43adaeU,
  0x3d0f2a0cbd62b008U, 0xbe7c35303de50446U, 0xbed0bfc83ed423c9U, 0x3cea11d53ef71e8dU,
  0x3ee332d3be923183U, 0x3ddf3134be2c122aU, 0xbec0deaabd8fbd92U, 0x3e0d44cabd73a381U,
  0xbef7e541bedbd92cU, 0x3ec22a8c3e00498cU, 0x3d9c449abe1ff4d5U, 0x3f21e9e0bdf79397U,
  0x3e08a764bd6b3576U, 0x3e815c39be43a825U, 0x3dd44dba3e2118ddU, 0x3dc1294abe07c238U,
  0xbe7e631fbbe659fbU, 0x3e883b71bd4db4b6U, 0xbe4d55d4be0b3a16U, 0xbde02cf5be3409c9U,
  0xbed5f1bd3d9f37e9U, 0xbd5e474d3f395dd8U, 0x3f1ab09f3d4174d6U, 0x3f9f17dcbde90411U,
  0x3e5200d03dc47f85U, 0xbe15b2f6bf699d9bU, 0xbe0998f1bf6041c3U, 0xbca1e8883e07d84bU,
  0x3f8c62433e5d6007U, 0x3e62a2ba3e5e8f3aU, 0x3d4871fcbe191a65U, 0xbd09dda23f09f211U,
  0xbdaebdc83dd78acfU, 0x3e82309a3d1cf054U, 0x3eacbba8be224021U, 0xbdf12b9cbf001e3eU,
  0xbd20fefb3e72bb56U, 0x3dfb49ca3e0df0acU, 0x3e2b13f33e13b7b6U, 0x3e0a592d3e81a87bU,
  0x3ed0d0623f2983beU, 0xbf07fdeb3d006e8fU, 0x3e10120f3e2d53b6U, 0xbf15aa3bbe288f48U,
  0x3e37b0d8ba447700U, 0xbe9a93ba3e86c29cU, 0xbe419da5bc941127U, 0x3e5edb2fbb5e315bU,
  0x3e3aa0b7bdd50e4aU, 0xbe726c2e3e233454U, 0x3ed01cbb3ce25ad8U, 0x3db1d54f3e9d3b9aU,
  0x3eddb9f43d112391U, 0x3e33266ebf5b83baU, 0xbf3904fd3c3cbf7cU, 0xbf969574be12374aU,
  0xbe047ec93ca6689dU, 0x3bbb77a03f832296U, 0xbe32444f3f8cbf60U, 0xbd15be5b3e19235cU,
  0xbfacf55f3cd39e50U, 0xbe1a11c4be633d85U, 0x3e138eae3dc192deU, 0x3da0e7e2bf05151bU,
  0x3e11ab233db3c017U, 0xbe9b2f293cabb8e8U, 0xbebb86863ddb8e59U, 0xbdd4bbdd3f078a74U,
  0x3e605ce8bec8fea5U, 0x3aafdf343dc413b0U, 0xbec2a7613d72055dU, 0xbd942fafbeb523b0U,
  0xbefa22a6bf073273U, 0x3eea9758bdbb15bcU, 0xbe4b863abe7aafa6U, 0x3f382bd83de8648eU,
  0xbe37a2febddae2e0U, 0xbe9254833e475d16U, 0xbe428c25be05b5ebU, 0xbdb52859bd9e10bcU,
  0x3e2cde4bbe1d7208U, 0xbe26238c3c8e5386U, 0x3e00555c3e53057dU, 0xbcfa93203eb8afa8U,
  0x3eb7b6d03e2ec9bbU, 0xbdd17c21bf39e356U, 0xbf26b85f3e3e636dU, 0xbf436af8bda823a4U,
  0x3ccf71c13e539240U, 0xbe284c1d3f4ace77U, 0x3e03fb133f1d6e9eU, 0x3cc5d5013dee3543U,
  0xbf7eeefa3e11345dU, 0xbd842042be4e5022U, 0xbdc8a5f23eb1498cU, 0x3de98427bf38d16aU,
  0xbe28af3fbb2db4ddU, 0xbe55fc213cae2276U, 0xbee8175b3e562fbbU, 0x3df455023ef7af43U,
  0x3eb6f063be981ee9U, 0x3c2713063da5b7d2U, 0xbe060a9dbdc9b124U, 0xbd6d9511bd36c1a4U,
  0xbe9af8fcbf2786a2U, 0x3e9606aa3db767eaU, 0xbde6d410bd9c254aU, 0x3f0e26a43e286dc0U,
  0xbe2ae9dabd87b985U, 0xbddc49f6bf90976bU, 0xbe396ecd3e233e06U, 0x3e0625e33e14a19bU,
  0x3ea68cecbf406778U, 0x3d8657ee3f0f06ebU, 0x3ea511b3be139eb9U, 0x3e1779053ec61b50U,
  0xbca547193c9aaf26U, 0x3da60d1bbebadcc4U, 0xbf0e98893ddce37aU, 0xbd33a478bcb5343bU,
  0x3ef9570bbc8695ceU, 0xbe3496963e19aa46U, 0x3e576f73bedd8967U, 0xbd9d143cbe3417afU,
  0xbe3cd05dbe142059U, 0xbe2007083d9f677fU, 0xbe0d779a3f274b30U, 0x3e8d8766bf18a696U,
  0x3ca5769bbe373ec3U, 0x3da7e4733ba68e5aU, 0xbd97555a3f3c2af1U, 0xbe302e6e3e5666f8U,
  0x3f91ef44bdebab0eU, 0x3e80ed88bbfff4c0U, 0xbdd728033e8e6e22U, 0x3c54ae163e90c819U,
  0xbd950716be375c1aU, 0xbea34c95be25ad0fU, 0x3e472703bdcc61dfU, 0x3ec85348bd9739d7U,
  0xbd93336e3e40c79fU, 0xbe52648cbf2b8668U, 0xbd0750633e3daff8U, 0xbe231dd63e27ce63U,
  0x3e94e302bf2f38abU, 0x3ca9e4193ef8e403U, 0x3e8901b4bdfa6bdbU, 0xbda265083ecdc1aeU,
  0x3e2db8bebd434301U, 0x3e44ea27bea11d5fU, 0xbf3aef22b9dd0fb6U, 0xbf0f6b99be126988U,
  0x3f1eddebbde9f58cU, 0x3e24d94b3eb2222aU, 0x3d027896bd139c56U, 0x3e239a5c3e311a8cU,
  0xbee2ebbe3d8d88fbU, 0x3b62f0883df93f7eU, 0x3e0dbfc83f1039d6U, 0x3d979734bf2b7592U,
  0xbd526f8cbdd3aa44U, 0x3e3abb5fbe4ada67U, 0xbe0d30c43f260d41U, 0x3d199c443e95dbdcU,
  0x3f6157ccbe35f313U, 0x3e6328913dd28416U, 0xbeabe0103e8c04c5U, 0x3d86143c3df491b4U,
  0xbe12ddfbbe007d25U, 0xbe117db8be0fd2e5U, 0x3e5c7410bd84873dU, 0x3ef110dcbd9be488U,
  0x3e1d9e6ebe538559U, 0x3dec6ea2bf8de4c8U, 0xbc886ca03d39f748U, 0x3e037eb93d94d582U,
  0x3e4b6239bf40d59dU, 0x3e9e654f3ecd88c3U, 0xbd549961be3b0d05U, 0x3d743f3c3e5d1b77U,
  0xbe5e36993dad0574U, 0x3e07b0bb3eefcfa9U, 0xbe859a1cbe336a4dU, 0x3f43d5953e41bba7U,
  0x3f0c24bd3e36ad95U, 0x3db34caabf08b0c5U, 0xbe06bfb6bf2beb3fU, 0xbd2de6023d61a274U,
  0x3f0a4c3dbd405ae8U, 0x3abfe40b3e6d657bU, 0xbd3d2f213eb7f08bU, 0x3e5b272c3dd8a816U,
  0xbe1b40dbbd83d21bU, 0x3ecbdb533e27779dU, 0x3e16ba7d3f1f18fbU, 0x3e5cb28cbe6f5a08U,
  0x3f6348e33d38835fU, 0x3e9ac5f8be32c450U, 0x3ddce60e3eb0b338U, 0x3ea96e213eabfcf6U,
  0x3e93cebd3e954d15U, 0xbe98090e3c6e9c41U, 0x3e7049463d24bd84U, 0xbe145174bbae8be0U,
  0x3e164dc1be2c122bU, 0xbe8b5ae43e37afd2U, 0xbe569f323ca7b126U, 0x3e6219453dbc4494U,
  0x3eb3f0e5be1fba9cU, 0xbe160ca53e318c1eU, 0x3c7014bc3dabcdceU, 0x3c25fa003ec9181dU,
  0x3ea57da8be034f17U, 0x3b1529c3bf140866U, 0xbf2984b4be30879dU, 0xbf6bd0593dd82013U,
  0x3e4abddabc2bf09aU, 0xbe367a583f3d5743U, 0xbde6ef823f0ec636U, 0xbe76583f3e2ece79U,
  0xbf6522093d8a1104U, 0xbdb2d4f5bea8e222U, 0x3cefe5213e92cae2U, 0x3e237513bf2f5665U,
  0xbe1d76643e709590U, 0xbe1bd4863d28647cU, 0xbec913db3ebabd04U, 0x3d193eac3eb63555U,
  0x3ec29befbeafa083U, 0xbceb37f7bdceaf15U, 0xbeaa8c9dbd565348U, 0x3ca6b402bdd708beU,
  0xbeba78dbbee898abU, 0x3e7881063c2224f7U, 0xbe09eb15bc22a566U, 0x3f1ab0923d3d3a2cU,
  0x3e25ec7ebce336cbU, 0x3ee3a90abe481bedU, 0x3cabd310bd8b6935U, 0x3c9213c8be3b3bdaU,
  0xbe5c66303df1e8f0U, 0x3ea32c05bc907ac9U, 0xbea17c96bd61e564U, 0x3e0feaa1be8f5ffeU,
  0xbee013bcbdee38a3U, 0xbc59a0253f8dfa4dU, 0x3f39cc913e02eff7U, 0x3f8406af3dbbd7b9U,
  0x3cd154ad3e012ce4U, 0x3e1f773bbf688fe0U, 0x3e225758bf669a61U, 0x3dc36044be1aa20fU,
  0x3f8fe19cbe37c973U, 0xbd6b20de3e709404U, 0xbd2ac243bdb6efbbU, 0xbc126e5b3f22a86dU,
  0x3e28d60ebdf37e9aU, 0x3e5a0c5cbe19e5ebU, 0x3ee5473cbe3e6a4fU, 0xbe068a3cbf0f9b3fU,
  0xbe612eee3ea10c98U, 0xbcac89033e3f787fU, 0x3d5fb74c3db765d9U, 0x3ded3a953e2bfb6aU,
  0x3eb6508e3f3a6244U, 0xbf048ea03e69e157U, 0x3df8fe3b3d9200b1U, 0xbf26d43f3d087ad0U,
  0xbdd9004fbe16fdabU, 0xbdd57a21bf7d4e9aU, 0xbda11cba3ddf5b36U, 0x3cfda9e63de8cf89U,
  0x3ec76255bf57b293U, 0x3e6a109b3eb756f9U, 0x3e901269bd25e958U, 0xbdc13d9e3ebb2914U,
  0x3dcc88713d6cf776U, 0x3d60fbdabeb11e18U, 0xbf376ca63d77bdc1U, 0xbe8c63ef3e298521U,
  0x3f2834e0bd77e83fU, 0x3d6810a43e2895e2U, 0xbe4066abbe325c74U, 0x3d48dfa93d867883U,
  0xbdf8b417bd2292e5U, 0xbe20e8fa3be620eaU, 0x3dd3befc3f1360a0U, 0x3e63c1cdbf04913aU,
  0xbe14f7c0bdf44234U, 0x3e802e673d45cc2cU, 0xbd82248d3f4570d9U, 0x3d1227163eb531fbU,
  0x3f844f98be0c867cU, 0x3e6024703e48534eU, 0xbe3f97f83ec96fe9U, 0x3c8ed43b3e808318U,
  0xbc9382fabe1b0fd0U, 0xbe3988ac3e1ee021U, 0x3d5067d3be35470eU, 0x3ea625b1be1fd752U,
  0x37fef586bd8b1302U, 0x3eba22f2bdfcab26U, 0xb9fb80003e29f1b3U, 0x3ded17aa3d883aa7U,
  0xbe48b85f3dd7b504U, 0x3ef493a0be55a63eU, 0xbdf8cd023dcd996eU, 0xbda8ea5abea4ca68U,
  0xbec40abfbcb6908dU, 0x3cda624b3f51b206U, 0x3f3524213d4953fbU, 0x3f88d8723dca4f25U,
  0x3deb5b0f3d5e6faaU, 0x3d9f33f2bf879c93U, 0x3dc924f2bf8a5d4fU, 0x3e2168ba3de9d02aU,
  0x3fa1a9f03e650adfU, 0xbe446be83e2a1796U, 0x3d298673be0e1347U, 0xbcf44b1a3f103befU,
  0xbdbcbe13bd981f27U, 0x3e85d28e3dd3bae6U, 0x3ec35aa1bb0c3114U, 0xbe633cf6bf05ae84U,
  0xbe0988ef3ec50090U, 0xbcb361a53de3bae2U, 0x3d258ab43e23dda3U, 0xbdc8f4373e981df7U,
  0x3ed9c2f03f4d01c0U, 0xbf05650b3dcc3511U, 0xbb9a49a73d2492ecU, 0xbf355e7d3d91623aU,
  0xbe1c68f5bdfa2e04U, 0x3dc967dd3f4cac86U, 0x3e33e80bbdca62d5U, 0xbd80b218bdd6dca2U,
  0xbecbb4d83f4acd55U, 0xbe67fa2cbeb0dff4U, 0xbebe52c93c47c180U, 0x3b87d820beb77b53U,
  0xbe060ccbbda9c311U, 0xbe115aea3ef96c9cU, 0x3f2e70193e30f284U, 0x3f19eb063e141b2cU,
  0xbf03ad51be8654deU, 0xbe5221fbbe85be11U, 0x3dcfd83dbda6ceb9U, 0x3e06d101be14ac88U,
  0x3ed1afdabd186d2eU, 0x3e4678b4be3dc01bU, 0x3e5cf149bef77972U, 0xbe4b77873f1a618aU,
  0x3e04a4073d3bbc62U, 0xbe9989ab3e0209ecU, 0x3dcfd860bf18378dU, 0x3c7ae61fbf18279fU,
  0xbf8696293e3b49a4U, 0xbe0b43333c088b60U, 0x3ddd2dcfbe2dcf0dU, 0xbdce1e88be418e8cU,
  0x3e2887063e695053U, 0x3ec73d493e13f1d7U, 0xbe40a9c03e8fa492U, 0xbeeaf01e3cf29208U,
  0xbe53dba13bb2fde0U, 0xbe94d3f63e316a2cU, 0xbe3a4d513df00eddU, 0xbd8f489bbe2c4804U,
  0x3ec067c0be5141e3U, 0x3d03a4cf3d10b4d9U, 0x3ed74c453d09584cU, 0x3e1506ee3ece3048U,
  0x3ea13d36be7d6cf3U, 0xbde06782bf468017U, 0xbf2765473c03169eU, 0xbf6079673de54e79U,
  0x3d6319633d943a07U, 0x3b9e2aa03f3598aeU, 0xbe2445093f284cc0U, 0x3e658901be419d5bU,
  0xbf9108b1bd156920U, 0x3d44edd2be6c7c40U, 0xbd3eae1e3dda1decU, 0x3dc550b4bf4060efU,
  0x3daa0ce0bdc629caU, 0xbe45d9e1bdac2832U, 0xbeeb56043e338311U, 0xbe3861ff3f06601eU,
  0x3ee00609bea61100U, 0x3dce6057bd110491U, 0xbe5c6dfebd80b580U, 0x3b44f5bf3c1bd0fbU,
  0xbee04100bf18f1d7U, 0x3e836215be26abb3U, 0xbd150170be4dba30U, 0x3f26cb833d6f7d5cU,
  0xbe1a7c84bdf6a459U, 0x3e87ff3f3e9188edU, 0x3dfadb8abe1ee0d0U, 0x3d0b7fc53dc8ccfcU,
  0xbed430023f02b12fU, 0xbe52ea16be1e7252U, 0xbed8f82dbe2a56a7U, 0x3e1b2d8abeb2796eU,
  0xbebcf8353cd1fe1eU, 0x3db002e53f0bd410U, 0x3f4dbc263e3bc335U, 0x3f75974bbe620cc5U,
  0xbea2ffa73cfa3e00U, 0xbddc1626bf13c2adU, 0xbdc50abbbf00165fU, 0x3e3a4a20bd5dfa50U,
  0x3f6b7bbb3debed8cU, 0x3e4d7abf3df5a335U, 0xbe39034bbedb2d36U, 0xbdf652823f62779dU,
  0x3d25334e3e2d3004U, 0x3c8403fcbd49cd3cU, 0x3eabbde0bf155c05U, 0x3da0bc46bf3a16a8U,
  0xbf468d4c3e91c160U, 0xbe147646be01a28eU, 0x3e94f899bdfc54a9U, 0x3c321728bdc83962U,
  0x3e6e70d63ef37201U, 0xbc77ab413e32c1bbU, 0xbb3179803e81e06eU, 0xbf241c143e6e4ed8U,
  0xbc81b0523e2aa7fdU, 0x3e7f5c923f9c8dccU, 0x3dffe096bcb5c700U, 0xbe08b98ebd4c25c3U,
  0xbee68ab13f4d057dU, 0xbca9b668bef6f6e6U, 0xbed9fb093e575025U, 0xbe6a0be7beb02120U,
  0xbe530337bb586790U, 0xbd4f0b803e6ac9e7U, 0x3f32a98e3d62be76U, 0x3ef9c869be3ed0acU,
  0xbee1017c3d18f453U, 0x3e3a3947beb4344aU, 0xbe152af2be5e4458U, 0x3ae65ba83e414757U,
  0x3ec9d65cbdf5c365U, 0xbe53666b3ba9bbf2U, 0x3e3557f7bed15fe4U, 0xbe1693823f32acd2U,
  0x3e4cf2333d8f9421U, 0xbd7833513da81a5aU, 0x3d3b8c1fbf58620dU, 0x3d97556ebef02a6eU,
  0xbf7cefb73e473ebcU, 0xbe67e0dabd5a08eaU, 0x3ec7c192be959095U, 0xbdb16684be6cc989U,
  0xbc4987de3e4dba77U, 0x3e0a32cd3e5d160bU, 0xbe8c9c6a3e584719U, 0xbefd13b93e44c565U,
  0xbd8ec378bc8d8a4fU, 0x3eab0e63bf96dc03U, 0xbe36b18d3e13388dU, 0x3e386d413e31e442U,
  0x3d9dd172bf0c0656U, 0x3edd585f3e89d404U, 0xbdbc26003d20963cU, 0x3de519fa3e9774edU,
  0xbe7b28d4bd7073d5U, 0x3c47cf9b3f0eec4bU, 0x3cd15b443dd4dbd6U, 0x3f78e98fbc65a297U,
  0x3edd77263cffac6fU, 0x3d4de59cbf0e2b4aU, 0x3db9ccafbf608d46U, 0x3e63479ebe4b7d99U,
  0x3f837b61bc02a169U, 0x3e1efc273d39b5b3U, 0x3e351ab03ea77adeU, 0x3df904b63d551915U,
  0xbe5a1b83be0f15c3U, 0x3e9fa2183e053915U, 0x3e81af783ecb5f49U, 0x3dbd8da0bebce6bcU,
  0x3f6e67f53e16df2aU, 0x3e44bc043d953deeU, 0xbd7199fc3ef651c7U, 0xbcc7814c3ed795beU,
  0x3ef98fb63e8aa4e4U, 0xbeb929423b889014U, 0x3ebe2855bde59b2eU, 0xbe8eb415bdef2649U,
  0xbdc58865bd95858aU, 0xbd1b53f9bf93987fU, 0x3de5910ebdfc5e48U, 0xbb68a6403e69e90cU,
  0x3dc45bbfbf3de03eU, 0x3e64e0453e8f7f3dU, 0x3e603f6d3e2fd1fbU, 0xbcbebcd53e9e39a3U,
  0xbd001647bd9f4e4cU, 0xbe1d9d013d6c0fcaU, 0xbef0f75e3d37fad4U, 0x3e87544f3c820499U,
  0x3ee7d909be366f2aU, 0x3d965726bd1c9183U, 0xbe232565be9703a4U, 0x3cf3c089be2cf06cU,
  0x3e48b7113e0bb8edU, 0x3c58bd6b3d4d74bbU, 0xbdd052a53f169284U, 0x3e1ee606bec6b898U,
  0x3e1285c1bcaa6d0cU, 0x3e7a5c76be555e13U, 0xbd8a76263f23fa91U, 0x3e2b95b53e964c0cU,
  0x3f7a057e3cb8d3afU, 0x3ea8bdd43d4101acU, 0xbdba80063e647a58U, 0x3cc8874e3e9d1d14U,
  0x3e376495bd88d044U, 0xbe4062e73e507c06U, 0x3e964aa4be67fdbdU, 0x3e3e8bd4be4fd76cU,
  0xbc3feae1be5c2023U, 0x3ecd7388bdd19c33U, 0x3e3da47b3e404c53U, 0x3dfcb942be1f7a15U,
  0xbe08af313e4f91d7U, 0x3e3b7cb6bdb7d14bU, 0xbeb7c6e73d87176eU, 0xbd6f388fbef5a841U,
  0xbeca8ea43e2ef96aU, 0xbdd2fd0b3f4870f9U, 0x3f3f2f46be2ef0c6U, 0x3f83ba3bbcc76f38U,
  0x3d11bf533e044cfaU, 0xbe0a0193bf539017U, 0xbdb8b0aebf25dbc2U, 0x3dea2b5ebe59e95aU,
  0x3f919d47bd9e4938U, 0xbd74f8aa3e698332U, 0x3e808058be224b94U, 0xbd462fbd3f437ee8U,
  0x3dab516c3c7c3f5eU, 0x3e9567bc3dd058a2U, 0x3eeab50ebe8b707dU, 0xbe28497abf00b12aU,
  0xbe9e54f83e9979baU, 0xbd1290cb3da05510U, 0x3e0eabe63e143d68U, 0xbcfd8a813e5e0d1bU,
  0x3ee906763f1a32b4U, 0xbebf8a97bdecbdbeU, 0xbe0af8753db9238cU, 0xbf306ad23c6fe326U,
  0x3d9306acbe243d43U, 0x3ea219eabe75755fU, 0xbe2e4b4bbc0c3568U, 0xbe0115423dc435ebU,
  0xbe4b6baf3df36c2dU, 0x3de37f67bd3d68ecU, 0xbead44b23bcb0000U, 0xbdd0e619bec9486dU,
  0xbec635693e2fbb67U, 0xbc15d7763f12f63aU, 0x3f1a4f1d3dd1f714U, 0x3f7b92863e267d83U,
  0x3dab810ebd8d711eU, 0xbe35301abf431979U, 0x3d2c20b1bf2b5eedU, 0x3d9b70eb3e80ae0bU,
  0x3fa15c813dc88fdcU, 0xbde221e43e639ea0U, 0x3c706936be5e3746U, 0xbcc933303f401adbU,
  0xbe2833b43c887895U, 0x3e8a7ab63e0df031U, 0x3ec719aebe3e9fe7U, 0xbd6e1d4cbef20c7cU,
  0xbead64203e903382U, 0xbcf3213fbd762b5fU, 0x3e3db4923dc97569U, 0x3d7bacba3d2a9e29U,
  0x3edbeeb03f1edfccU, 0xbe6f6beabdf42a57U, 0x3cc47eb23e0cb928U, 0xbf24aef53c1dc578U,
  0x3c2dfba53e01541bU, 0xbe82bec43e931467U, 0xbe18dc21be12ad1aU, 0xbdd6140a3d8316f0U,
  0x3e8fc6f4bd298545U, 0xbe8ea3193e204405U, 0x3e9d0e4dbe565a8cU, 0x3e011dd23e9d0765U,
  0x3eaeb02e3e170feeU, 0xbe5bdc2dbf51169fU, 0xbf1f0b693d8478f7U, 0xbf808d313e4941a9U,
  0xbd9df972bcffe39fU, 0x3e2f3ab93f8a1e3cU, 0x3da7ad263f752fbaU, 0x3e0733ba3e3367bcU,
  0xbfad3b783e1002fdU, 0x3db48ec1be835461U, 0x3e549c4a3e59ef12U, 0x3df22f8cbf12c68aU,
  0x3e23838c3dd1edf2U, 0xbe860c913e39e02fU, 0xbec4ed0dbc4153f2U, 0xbe2fdcf63efc556fU,
  0x3e4e8f73bec251dfU, 0xbd8067083d3403fcU, 0xbe5af9ddbd8293a7U, 0xbe021d48be3e97b3U,
  0xbf11f6debf4c1d72U, 0x3ed7e0aa3d3e7228U, 0xbe32b994be19f7abU, 0x3f2e748d3e0432e8U,
  0xbd34e966be3d7b8eU, 0x3ecbfb2ebf090553U, 0xbe42a5013e405fedU, 0xbc22526a3e1f7256U,
  0xbd265a5dbde13feaU, 0x3eedbc0bbe28b481U, 0xbe888c663e47a8e3U, 0x3da71f5ebe35dda7U,
  0xbeace211bcc41e32U, 0xbded4da23f76ddd0U, 0x3f01b55bbe30b4b2U, 0x3faa9175bc8cc345U,
  0x3e9173cc3e203b6bU, 0x3cb8baa0bf7d430fU, 0x3da6c6acbf8b18b0U, 0x3d755ab1bd7a6cd9U,
  0x3f98f0f8bdb22ef0U, 0xbd92b9c23e69efb4U, 0x3e2d83bd3ce402d9U, 0x3d8178833ecc9ffcU,
  0x3e023581bd90348fU, 0x3e8c15783d848b2eU, 0x3ecf0e523e05e54aU, 0xbe17c851bf120fd4U,
  0x3e56076c3ed532ecU, 0xbdd7e676be02eeddU, 0x3ea644fc3df0907dU, 0x3c89d2373ea607e1U,
  0x3ea84b8b3f0587c8U, 0xbf058dfd3da7beb0U, 0x3e96d6723d94add2U, 0xbf28aea3bdd80ee0U,
  0xbde45fbe3cdf64eeU, 0x3ed43b12be8dfe41U, 0xbdc71105bca5a4b8U, 0x3e3c1865bcf30c3fU,
  0xbd482182bdafe084U, 0x3e947ec0bd2c032eU, 0xbecfe0f6bdd9e6ffU, 0xbe38fd1abd65e7f2U,
  0xbed1460dbd89c589U, 0xbe07436b3f8c1d13U, 0x3f259e81bda9c5ccU, 0x3fa3042bbe323543U,
  0x3e1f342a3e494581U, 0x3e422a49bf834e81U, 0xbe2c5f4bbfa0d0a4U, 0x3bd2d706bdf8f958U,
  0x3f9482d53e5cdf0bU, 0xbde9f7263de945d2U, 0x3dbe12c43d579e8aU, 0x3bc00e663eb52585U,
  0x3ddffe023e24b287U, 0x3ea91b50bcbbfaa8U, 0x3eee2f9cbc470d93U, 0xbe3dd92abf0d2452U,
  0x3eb5f4863e822728U, 0x3b6e3edabdbc7919U, 0x3eada6983d9b274dU, 0xbc82c7ba3e96930fU,
  0x3eb50b733f29087aU, 0xbf0f19a1bdb5637fU, 0x3e31411d3daef48eU, 0xbf15c6eb3c56196fU,
  0x3e234356bd72ecf4U, 0x3e9e8fa2bf90e0d7U, 0x3e108295be358c4aU, 0xbda20d763e330478U,
  0x3e4818a0bf19661dU, 0x3ea996543e70603fU, 0xbcdb31f7bb8983e0U, 0x3bf7cdfa3d026d8dU,
  0xbe6566ff3d441607U, 0x3d6b27a93f2442fcU, 0xbc44ad40b99b3371U, 0x3f85e6273cb48309U,
  0x3ef10108bc4b2defU, 0x3ca8b730bf1178fcU, 0xbe54457bbf5291afU, 0xbafb79b83dce73a4U,
  0x3f440be43e1b636eU, 0x3e4873d13e7c2b6dU, 0xbdc386573edbb8f0U, 0x3e92bdaa3dd0ade7U,
  0xbdc36e03bc503bfdU, 0x3ebe8fc0bd1b42c8U, 0x3e5fba443edc33bdU, 0xbdf065f6be605e36U,
  0x3f7a45903a3ea854U, 0x3d56834e3d97f696U, 0x3e3336c83eb2083cU, 0x3d4542583e89acb4U,
  0x3ec5b8393ea04a63U, 0xbec2bf55bdd441c4U, 0x3dfb76e5bd667ec4U, 0xbe5a1aac3b3c8757U,
  0xbe0bd8aabd2175a8U, 0x3ef6bec5bf1c00c0U, 0xbe3cf441be11e310U, 0x3e1ebdf53bea0e73U,
  0xbd141e08be11c53dU, 0x3ef458b43d0b4a36U, 0xbe8f9a343dd13ed6U, 0xbe100f4cbe479c36U,
  0xbeaf29b4bc199fe9U, 0x3e5545313f7e1b64U, 0x3ed815f13c0a0936U, 0x3fa024a13e24012aU,
  0x3e741eabbbb6000dU, 0x3dceae4ebf8aab68U, 0xbda2fa1abf8d3062U, 0x3e5b60f23df25069U,
  0x3f9f76b0be2030eeU, 0x3e21f24d3e58a56cU, 0xbe1d2362bcf14990U, 0xbd4685483e9fede8U,
  0x3df67b8b3d6ad6bbU, 0x3e9968eebe349e90U, 0x3eb3b1523e7f5031U, 0x3e4917f9bf1fc837U,
  0x3ee9f0f33e553f1cU, 0x3e0dd6d5be0f2645U, 0x3ddbc9213ebc4401U, 0xbd4f7bd23ec51aa9U,
  0x3efc1bc03f35907bU, 0xbea960713c889715U, 0x3e7226783c62e66dU, 0xbf079bf93d51d277U,
  0x3e23e44abdf26f62U, 0x3e343691bf6a942eU, 0x3e123d57bd801fc0U, 0xbde7210c3e0ccc80U,
  0x3dd540bcbeb3d810U, 0x3e35689c3e8aa1efU, 0xbe1a574ebe1a3b84U, 0x3e22de893df56f07U,
  0xbea03a55bda1d8e2U, 0x3e47b5a73f14b96aU, 0x3e82d856be49ef27U, 0x3f4def14bdb73e97U,
  0x3ead5e183e163141U, 0x3da789aabf2e944cU, 0x3d9835cdbf7dbb92U, 0xbdb5806dbdaaaffeU,
  0x3f6027c43e1ef9caU, 0x3dc091303e2a3b61U, 0x3e59a01c3e952818U, 0x3e8db7043e8a1035U,
  0x3e298de5bbf02b93U, 0x3e9361aa3d277465U, 0x3e8f93463eb2c37aU, 0x3e78cb0abedbee2bU,
  0x3f37e5a53e1ae487U, 0x3cbbb7c13e1f2383U, 0x3e60c5c63ea333fcU, 0xbd9d89623e314c27U,
  0x3e9afd9d3efec4bcU, 0xbf1420c2be123cf1U, 0x3e0058223d86d45dU, 0xbebf426ebd617980U,
  0xbcdeb4723e18a511U, 0x3dad83b6bf9e9c97U, 0xbce670583df8f6d9U, 0x3d6ef4bcbc289c3dU,
  0x3e922c4ebf4f7637U, 0x3dfc56ad3ed17a04U, 0x3e708e153e2fc5e9U, 0xbc945bc03e404173U,
  0xbdbf6a89be057074U, 0x3cd5886b3d0267c6U, 0xbf0e892dbe07fe1aU, 0x3dc8564b3d518008U,
  0x3f238502be43b770U, 0x3e471819bda30a60U, 0x3e3afec8beb8bb9cU, 0xbe09f204bdd17121U,
  0x3e24dcfd3e12a9e2U, 0x3d3e1a853e0be7c0U, 0xbe63ef0d3f19c40eU, 0x3e651606be3d634dU,
  0xbdc1eaf5bd71c006U, 0x3e84575ebdc2035dU, 0x3d3811fe3f53a54aU, 0xbe3ed8aa3e308e7aU,
  0x3f8fb39cbdfe2e1bU, 0x3e9bdd44ba2c840aU, 0xbe3ad8a23eafdd63U, 0x3e5ab5023e038194U,
  0x3c90da3c3e3262feU, 0xbe947b173d33b09aU, 0x3e8f1afdbd6eb3e3U, 0x3e50b8b0bdf77d17U,
  0xbc9dd6f03e1eeb93U, 0xbe6472863f8df83fU, 0xbdd1dacd3d3d5e87U, 0xbe38e4f0be12bd7dU,
  0xbda9c0213f108754U, 0xbe774433be35b6b2U, 0x3e1cc4bc3e4e9111U, 0x3dbaa3b6be8493d7U,
  0x3e2cd5263c2b59ecU, 0x3e0a8dcdbf0f1b26U, 0x3d14faefbe60eab8U, 0xbf64d806bdeb615eU,
  0xbecf976b3da4930bU, 0xbdb6a8343f0c1e93U, 0xbc6222293f52b614U, 0xbcd743f7be21880eU,
  0xbf2e935b3e2e9ea9U, 0x3dcc57d6bdbc0437U, 0x3e302e7abed0066aU, 0xbe8b9f123d263cc4U,
  0x3ca14a2dbe5d79c8U, 0xbe91f6473e3db83bU, 0xbe3e0174befa8483U, 0x3d8d78d63e6f89e5U,
  0xbf69c758be290d1eU, 0xbe86e5c5be429522U, 0x3d329834be985f38U, 0xbde73a35bed23b4eU,
  0xbee1c515bed2b58dU, 0x3ec25fa63e42a4b0U, 0xbe43a95a3cc2adbaU, 0x3e4c96d53d98dc26U,
  0x3e1645c4be6ada4cU, 0x3eafe112bf0dd1fdU, 0x3c6f8110bb1a28ecU, 0xbdceaa39bb61eccfU,
  0xbded70dbbd99f2deU, 0x3ec1499cbd455156U, 0xbe04ce743d835d56U, 0xbe2035f7be38d78bU,
  0xbeb24ca83e0ac232U, 0x3d35b1953f79004bU, 0x3f0db86a3ddbda33U, 0x3f9e0e473e359d80U,
  0x3e6b9a97bdf31d40U, 0x3bdecfe0bf74073dU, 0x3d20eaa9bf964d04U, 0x3d07198d3c2396daU,
  0x3fa14bf0be3b2dcbU, 0xbde0c1e53ddb2aaaU, 0x3e002b833c5a3e12U, 0xbd4585af3ef1327dU,
  0xbe33345e3baefa23U, 0x3e94778cbcc758b8U, 0x3edc2e273e14c9c4U, 0x3e424667bf0449d7U,
  0x3eba441f3ea3241aU, 0x3d8955b7bd79fccbU, 0x3e55ab653e0f5fbeU, 0x3cfe84ac3ed66156U,
  0x3ec480983f033b39U, 0xbeb52566bdfdedd4U, 0x3e49dc343da148cfU, 0xbf1386e5be168623U,
  0xbd20e12cbdc9fdb3U, 0x3d55e506bfadbcacU, 0xbe4d1fb7bdb73915U, 0xbd9532363d8f0c32U,
  0x3e725807bf5f6b43U, 0x3e86b55a3efc3d22U, 0x3e110bbb3e23ebc7U, 0x3c1087313ea1ae75U,
  0x3a522038bd24edbfU, 0x3d8da8d73dc09149U, 0xbef4b99ebc61616cU, 0x3ed4c6f73cd86ce9U,
  0x3f1b5ed73e2efc89U, 0x3e498f97be905ab9U, 0xbe145a3ebf0c023eU, 0xbbc63f913d6c311bU,
  0x3e9b09023e12300dU, 0x3e31ce173e817da0U, 0xbe5c9a3e3f069e97U, 0x3d6c1705be2f674cU,
  0xbd560bf1bd93807aU, 0x3e8110143de658a6U, 0x3e32de6c3f4a137bU, 0x3d33b2c13dd64936U,
  0x3f7c9121be23f6cbU, 0x3e90a9b93d0dc867U, 0xbdb596e23ebd015dU, 0x3dfd2b373ebb4440U,
  0x3e9237813e10d0f0U, 0xbe8118853da23b2eU, 0x3e5e3dc1be5da8d2U, 0x3e2a2640bd813668U,
  0x3e28221bbcd26f74U, 0x3d82165a3f53507bU, 0x3e4feb5fbd88dd46U, 0x3dccc1b23d8e9a93U,
  0xbe9aa8a33f1d7c1bU, 0xbe1fb7f8bed90740U, 0xbe2719e2bd558908U, 0x3de36562bec3b30fU,
  0xbe4f1a0ebb865a00U, 0x3e387d123eb1c6b9U, 0x3f258c8b3d4995e2U, 0x3f005d1bbe1aa7b0U,
  0xbeaf36263e293c61U, 0x3dadb2a6bec6e135U, 0x3e207becbddc6d8cU, 0x3d9a0745be0e2ea8U,
  0x3eda1153bdd8b381U, 0x3e4a6831bdbe4b4eU, 0x3ddc6ea5bf125c70U, 0x3bd681723f1b026dU,
  0x3e305d49bd5f9b7cU, 0xbd426dfcbe053814U, 0x3d9483e9bf2396acU, 0x3e14a2ddbed32a1cU,
  0xbf4e89c93e96c51dU, 0xbe54d98f3e4e8b07U, 0x3e97deeebe5f7219U, 0xbe5d0a5fbe159ccfU,
  0x3e0f3a463e9007bdU, 0x3e121988bd7cf045U, 0xbe3950653e6f5090U, 0xbeee17dfbdf40139U,
  0x3e127b37be331f92U, 0x3e96622ebf3374b2U, 0xbc18a3d1bdeee9fcU, 0xbe429c67bd7fd898U,
  0xbe086577be13d154U, 0x3e85ab243e016832U, 0xbe8833063ddcc4e6U, 0xbe3a57d1be131dcfU,
  0xbea0dbd03de58247U, 0x3d6082e33f5a3285U, 0x3ed3ca9abe0b0cd8U, 0x3f91f8d0bdc1d61fU,
  0x3eb9d5293cf8f1afU, 0xbcc507b0bf6a8014U, 0x3e33c1b3bf880fc8U, 0xbe1bea3a3d8f3dbcU,
  0x3f9062a9bdfedeadU, 0xbe377fbd3d18a0b7U, 0xbc4124733daa6180U, 0x3baccdeb3ebc8684U,
  0xbc63c660bda19c07U, 0x3e60f7323e35e771U, 0x3ec513fd3eaf29e3U, 0x3db323d6bf1d25cfU,
  0x3eecca663e3ce263U, 0x3e178289be4181f4U, 0x3ca93f443e96ebfdU, 0xbd85205e3e853eddU,
  0x3f1114983f4095fcU, 0xbf048989bd925872U, 0x3dadaa583e2c5660U, 0xbefad093bcfb32d0U,
  0xbe100cfe3d71bc04U, 0x3ec150e0bf50ad47U, 0x3e150342bdf15a14U, 0x3e42a9cfbe0eaf9bU,
  0x3ccf0f9abe97d22eU, 0x3ecf707c3e737c78U, 0xbe503ffdbd478b6cU, 0x3db5d49ebdc45038U,
  0xbe94f191be082d72U, 0xbd76506e3f73c98bU, 0x3ecfbebfbe01763aU, 0x3fa6ce24bd9a202dU,
  0x3ece00d9bd50b022U, 0x3dd66a3abf897b33U, 0x3c296fa5bfa8f147U, 0xbe0835093e1d042cU,
  0x3fa4492abc9da3e0U, 0xbe09f7473e8cd13aU, 0xbe0cd4ec3e344fb8U, 0x3d9876413ea0151bU,
  0x3e1d3eebbe197baeU, 0x3ea4b3b4be299093U, 0x3ef11ff13ed90d92U, 0x3b9d52d7bf04ce94U,
  0x3f0ccbcb3e056261U, 0x3cc86a8dbe26c169U, 0x3e2d9fcf3ef7a1afU, 0x3c93d5523eced21bU,
  0x3ee209773f1328d2U, 0xbf1dab8c3db7a805U, 0x3e51125c3e64ba1eU, 0xbee7628fbd1b25e1U,
  0x3d18fb99bda2cf6cU, 0x3e8a1495be0f88eaU, 0x3cbdb2c83e69df18U, 0xbdde3aabbbd56e93U,
  0xbea21b213d8771f4U, 0x3e146ac7bd5a3c00U, 0xbe2c2dfabe5c8fcdU, 0x3d61c584bebd7b12U,
  0xbea0a02e3e0abb8fU, 0xbcf42cd33f179b29U, 0x3f138c363c067624U, 0x3f5aae7bbd71ec47U,
  0xbcf1bc693cea42c1U, 0xbe21cfeabf37f41dU, 0xbde1b170bf1c6566U, 0xbdd6a5793d1d34aaU,
  0x3f56ffb93d0bd354U, 0x3e1277743e8cc6c5U, 0x3d6ad6fabe1b505aU, 0xbd15e62c3f2b4d68U,
  0xbdf77534bdbae711U, 0x3ea06680bcee05bfU, 0x3ed6aeabbe4f5d40U, 0xbe633555bedf2124U,
  0xbe57e3b93ebe1e99U, 0xbd30c388be2599daU, 0x3e2081563d420c3eU, 0x3bb563443db5cd6cU,
  0x3eb419b23f192973U, 0xbec588a3bd98e69cU, 0x3a48fa4f3d2dc134U, 0xbf1f30413c8ea258U,
  0xbda7e4593d847034U, 0x3e6ff2883f3678b1U, 0xbdcb8a653dfacfc8U, 0x3d3471aebe3ae0a7U,
  0xbe1274533f2c6810U, 0xbd3e163dbec998bdU, 0xbe7384b7be1fe40eU, 0xbe0d5271beebd358U,
  0xbe50985dbe0a21c6U, 0xbd42819e3ec2ff00U, 0x3f234097bd6b1615U, 0x3f0abcbbbe4dd41eU,
  0xbed376a73dfb2aa4U, 0x3c938d38bed9dbd0U, 0x3dc385d9be6266e6U, 0xbe48f1a7bdda3fedU,
  0x3f187c193e60c1e2U, 0xba81dc9b3dce6f25U, 0x3cc67974befa70d1U, 0x3c846e253f27b95eU,
  0xbe4f7ac9bdf835a8U, 0xbe10c0f03de2ca29U, 0x3e4389b4bf2bc4e5U, 0x3e5c3481bf08663cU,
  0xbf4588413e962705U, 0xbeaf26623e3973b9U, 0x3e42b1b5be851128U, 0xbe22ea40bde50bfbU,
  0x3da50d143e92ed87U, 0x3e7e791c3befa277U, 0xbe59e74e3e373395U, 0xbf04f93e3d7af57cU,
  0x3e42b5a8be3be6c2U, 0xbd567f94bf8dc433U, 0xbe38158e3c96e204U, 0x3dff82c23e5fcca4U,
  0x3e4de53fbf45237aU, 0x3e7acff53ef443a0U, 0x3e9689953e3cd0fbU, 0xbd24e72d3f07f592U,
  0x3e074670bce015a3U, 0xbccf395cbd74c146U, 0xbef0358cbe1564d6U, 0x3e08ccc93c3b05c1U,
  0x3f258d52bd39dacbU, 0x3d20dabcbdc50481U, 0x3db10a86bebc0111U, 0x3e391d613da82b22U,
  0x3dd1acc43dc4f576U, 0xbdaee2803dabf52dU, 0x3e28f0003f086df2U, 0x3d534f45bec8e99bU,
  0xbca811a63e259f79U, 0x3e120132bd836df4U, 0xbd00d4ea3f1804deU, 0x3e4e25393e5b44fcU,
  0x3f919338be5c12aeU, 0x3e0dba9fbe45869bU, 0xbcc5a5f63ea705f7U, 0x3dd628ba3e82ddd3U,
  0xbcd766d2bd9d5767U, 0xbeae8858bc048bd8U, 0x3e8a931dbe30c4f9U, 0x3e904018bb416bc0U,
  0x3dae82423ddb731aU, 0xbe37773bbf7ee1aeU, 0x3e5e27083e43600fU, 0x3e14a4d5bcecb1ffU,
  0x3ece6938bf4fe142U, 0x3e67de913f07ec09U, 0x3e9a4890bc1e0ee0U, 0x3e2f18c93eca87eeU,
  0x3da947133e14d6b9U, 0xbe189419be4a22d7U, 0xbf102153be23f047U, 0xbeadde60bd948062U,
  0x3f05d6b73e18ffc5U, 0xba44b6003d697c19U, 0xbe0d3302be86d140U, 0x3ca1726e3dd8449aU,
  0x3d558295bce2bb1eU, 0xbe124c9f39fb3fa0U, 0xbd3a3e3e3f2310c0U, 0x3e3c6989bf06f69fU,
  0xbdd19f5fbd3cc66fU, 0x3e389ee63e4ccf61U, 0xbdd53a303f5b8d1dU, 0xbe26060d3ec82964U,
  0x3f8cdd4bbb33de60U, 0x3e5adf6abe654a43U, 0xbe2405cf3e4a301dU, 0x3e2a24c73e65f986U,
  0xbd254b82bd802ea0U, 0xbecc84cb3e40f1caU, 0x3dd9771dbe58d467U, 0x3e8a28e83e358aa5U,
  0xbd37880abe43c6adU, 0xbeeba6ed3e7c390bU, 0x3e11459dbe56ade3U, 0xbd1331403dbc431fU,
  0x3e4616a6bd9994d8U, 0xbebb45413df374e9U, 0x3ea6be463e51cfedU, 0x3daece663ed64823U,
  0x3eafb95d3d627a70U, 0xbddf0a88bf3a803aU, 0xbf15894ebdcd36b5U, 0xbf9ca4773e53cb8dU,
  0xbe0f8ae73dd58304U, 0xbe1558273f7a0ce4U, 0x3d23a01f3f829e96U, 0xbd33db0d3e4c7290U,
  0xbfa81577be3ad6a0U, 0xbd0521e1be871281U, 0xbda194733dc128dcU, 0x3e2e6cf5beed28b5U,
  0x3dd624523e3c7e79U, 0xbea126303e319b28U, 0xbed10d243d73d79bU, 0xbd4214a43ed99d2eU,
  0x3ed94357bea6508fU, 0xbdb5b0a7bd3cd538U, 0xbd36dd41be1e5098U, 0xbc911d11be9fa008U,
  0xbee78850bf26bcaaU, 0x3eb3d28c3e0ef549U, 0xbe0eb75ebe3125f3U, 0x3f1f68ea3de8cf3eU,
  0x3d6801a33c21fe3cU, 0x3ebbf98cbe8b6d24U, 0xbdc8fa133caa3c40U, 0x3d0fc43e3e1f00a5U,
  0xbdac3e3f3d235924U, 0x3ea75e08bd9e3faeU, 0xbe80cb223dbba636U, 0xbe0cfaacbe9db2a6U,
  0xbec38ee13c868b22U, 0xbda20eef3f514d05U, 0x3f36f2773d76818dU, 0x3f9dbe18be34e5cbU,
  0x3df7d9b23d648c4fU, 0x3e0912fbbf7f0674U, 0xbe05b010bf87b95eU, 0x3d014b753e659ab1U,
  0x3f98562abe41c9c7U, 0x3e25f2143e51ccd4U, 0xbcf6e2a5be04c384U, 0x3cad66403f104691U,
  0xbdabe5a23d69581dU, 0x3e6694b83e57e3e5U, 0x3ef25acb3d2b710aU, 0x3dc3e134bf0186d3U,
  0xbd99fede3e32b3c4U, 0xbbbdd3ca3d5f914cU, 0x3dba5d143e7c1dbdU, 0xbdb29c883e4d5b92U,
  0x3f0274f53f4337b3U, 0xbf0e749bbe340bbdU, 0x3c911d823d0271acU, 0xbf109f8abe3ab350U,
  0xbe0eb5f8bd9243f8U, 0x3e976909be820218U, 0xbe12f9be3df21f5aU, 0xbd9498f43dc648d0U,
  0xbe5ea2413dcfe5aaU, 0x3ed086e4be1422d4U, 0xbe3ec917bd1eea84U, 0xbe1ff2f0be6484c9U,
  0xbeaf02d1be298c88U, 0x3d8f291f3f6bb323U, 0x3f35ffafbdc4bc04U, 0x3f7249253e110c09U,
  0x3dc47380bdd4f882U, 0x3da04e06bf7814eeU, 0xbd5aaae9bf855a72U, 0x3d765a6e3db34ac2U,
  0x3fb56898be33ad97U, 0xbe4572e23e86b5c2U, 0x3da88e0abde23487U, 0xbcdbf2c33f12f8e2U,
  0xbcee7d483c43cca5U, 0x3e6a58b03e422dd1U, 0x3ec82dbabe7cf908U, 0x3e574221bf0790b3U,
